<|endoftext|>
<|im_start|>
<|im_end|>
<repo_name>
<reponame>
<file_sep>
<filename>
<gh_stars>
<issue_start>
<issue_comment>
<issue_closed>
<jupyter_start>
<jupyter_text>
<jupyter_code>
<jupyter_output>
<jupyter_script>
<empty_output>
!
"
#
$
%
&
'
(
)
*
+
,
-
.
/
0
1
2
3
4
5
6
7
8
9
:
;
<
=
>
?
@
A
B
C
D
E
F
G
H
I
J
K
L
M
N
O
P
Q
R
S
T
U
V
W
X
Y
Z
[
\
]
^
_
`
a
b
c
d
e
f
g
h
i
j
k
l
m
n
o
p
q
r
s
t
u
v
w
x
y
z
{
|
}
~
¡
¢
£
¤
¥
¦
§
¨
©
ª
«
¬
®
¯
°
±
²
³
´
µ
¶
·
¸
¹
º
»
¼
½
¾
¿
Â
Ã
Ä
Å
Æ
Ç
È
É
Ê
Ë
Ì
Í
Î
Ï
Ð
Ñ
Ò
Ó
Ô
Õ
Ö
×
Ø
Ù
Ú
Û
Ü
Ý
Þ
ß
à
á
â
ã
ä
å
æ
ç
è
é
ê
ë
ì
í
î
ï
ð
ó
ô
Ā
ā
Ă
ă
ą
ć
Ĉ
ĉ
Ċ
ċ
Č
č
Ď
ď
Đ
đ
Ē
ĕ
ė
Ę
ę
Ě
ě
Ĝ
Ğ
ğ
Ġ
ġ
Ģ
ģ
Ĥ
ĥ
Ħ
ħ
Ĩ
ĩ
Ī
ī
Ĭ
ĭ
Į
į
İ
ı
Ĳ
ĳ
Ĵ
ĵ
Ķ
ķ
ĸ
Ĺ
ĺ
Ļ
ļ
Ľ
ľ
Ŀ
ŀ
Ł
ł
Ń
Ġt
Ġa
in
he
ĠĠ
re
on
er
Ġthe
at
Ġs
Ġo
en
Ġc
es
Ġw
nd
it
or
is
al
Ġp
ing
Ġf
an
ed
Ġb
ou
ar
Ġin
Ġof
Ġm
Ġand
ion
ic
Ġd
Ġto
ĠĠĠĠ
le
ro
as
ent
Ġh
Ġth
ct
Ġe
Ġre
el
om
il
st
Ġl
Ġn
et
im
ve
ol
ation
Ġg
id
ĠT
se
Ġis
ur
ut
ra
ly
ce
ot
âĢ
ch
ow
ig
Ġbe
Ġu
Ġfor
Ġst
Ġy
ĠA
ver
am
ĠĠĠ
ĠS
Ġon
ul
ir
Ġthat
ĠI
ĠC
ay
if
ith
ad
Ġcon
Ġyou
Ġas
Ġpro
her
od
Ġwith
ter
ĠĠĠĠĠĠĠĠ
Ġan
Ġor
Ġwh
Ġit
ment
Ġare
Ġal
ge
ess
ist
Ġex
Ġ(
ers
Ġde
ate
ab
ies
op
ĠM
th
ect
res
us
ĠP
ĠThe
Ġcom
iv
est
um
ity
Ġhe
qu
Ġv
ac
ill
ĠB
ore
em
Ġwe
Ġsu
pp
os
ke
and
rom
nt
ld
ort
ain
ant
ive
igh
oc
ĠH
ĠW
ial
Ġch
Ġby
Ġr
ud
ĠE
ĠĠĠĠĠĠĠ
Ġcan
âĢĻ
Ġat
un
Ġne
Ġha
ĠD
--
ure
Ġle
ĠF
Ġse
ĠR
Ġfrom
Ġen
ri
pe
ical
art
og
Ġwas
pt
ions
pl
rou
Ġnot
ĠN
Ġsh
Ġim
ight
Ġ=
out
ĊĠĠĠĠĠĠĠ
all
ĠL
Ġthis
ĠG
Ġab
ag
red
per
Ġhave
Ġwor
ĠâĢ
gh
our
ine
iz
Ġint
ome
ĊĠĠĠĠĠĠĠĠ
ust
Ġus
Ġyour
ould
act
ĊĠĠĠ
age
ost
Ġpl
Ġ"
ard
ell
ther
Ġtheir
ult
elf
ated
ff
ich
end
ans
ous
ide
ru
ations
ĠO
Ġad
ak
Ġwhe
du
cl
Ġcont
Ġres
ast
Ġk
Ġthey
Ġcomp
The
ib
's
orm
ip
cc
Ġdis
Ġall
ap
ame
ĠU
able
ong
ear
ere
ie
ass
Ġimp
are
Ġwill
ance
ĠTh
ind
Ġwhich
ood
ary
ĠJ
ual
vel
ĠIn
ep
ence
Ġdo
one
ks
Ġcl
Ġmore
ry
ia
Ġte
Ġj
ign
ue
ents
reat
Ġme
Ġother
Ġun
ile
Ġhas
ach
Ġman
ime
ction
ild
so
ress
ces
Ġar
Ġabout
Ġbut
av
Ġapp
Ġper
oo
ice
ition
ater
ely
âĢĿ
Ġsp
ake
ase
Ġev
Ġout
ors
ack
ens
Ġone
very
form
Ġif
----
ory
Ġso
ord
ace
int
Ġwere
ber
nder
).
Ġli
Ġalso
ount
Ġpart
Ġcomm
Ġthem
ose
au
ang
ci
Ġstud
con
rit
ire
Ġpe
ub
now
Ġqu
Ġup
Ġsy
ings
Ġwho
Ġinto
ĠâĢľ
ound
ish
Ġpre
Ġthese
Ġits
ĠSt
olog
iff
pec
ĊĠĠĠĠĠĠĠĠĠĠĠ
rough
ric
Ġfe
Ġbec
Ġsome
Ġtra
ail
Ġ'
Ġhow
Ġself
ree
Ġind
ities
),
king
Ġwhen
ays
ph
vers
Ġem
Ġhis
Ġro
ific
Ġour
Ġmay
Ġtime
Ġunder
ĠIt
ments
ĠK
ates
ople
ne
ite
Ġcol
Ġthere
Ġbet
urn
cre
ĠThis
Ġthan
ough
ys
Ġdiff
ating
ob
te
we
ĠCh
ath
ject
Ġtr
ally
low
erv
Ġgo
ms
Ġcons
Ġag
Ġra
Ġover
lect
Ġrec
xt
Ġpr
ple
tern
ian
Ġacc
Ġknow
cess
Ġpeople
Ġlike
ove
Ġhel
Ġact
ata
ons
Ġdes
lic
clud
ious
##
Ġyear
arn
Ġsuch
Ġrel
ĠV
ĠY
Ġbeen
row
ef
Ġuse
ren
Ġhelp
Ġnew
get
):
alth
irst
ert
Ġ-
Ġwhat
ause
eth
les
Ġwould
Ġneed
Ġthrough
ful
stem
uring
round
Ġsa
Ġam
Ġeff
Ġwork
ics
velop
ov
Ġany
ool
Ġimport
Ġdef
Ġbl
ular
ures
Ġass
Ġspec
Ġgen
Ġtw
Ġhad
rib
mer
ll
Ġinclud
ced
Ġoff
Ġmost
ise
hed
self
Ġprov
port
iss
ract
ange
Ġph
ict
Ġreg
ational
als
Ġdiffere
ility
Ġac
pect
oss
Ġno
In
oth
ook
ative
ark
old
Ġob
hen
Ġprodu
Ġinv
Ġmod
Ġdevelop
Ġmany
Ġdi
Ġrem
Ġadd
Ġused
Ġonly
Ġsc
fter
Ġfirst
ween
ĠUn
Ġchild
ible
ten
ram
uc
ĠâĢĵ
Ġsystem
arch
Ġatt
Ġget
ased
Ġinst
ower
com
cept
Ġbetween
Ġtwo
**
Ġret
ife
chn
Ġfl
erm
Ġinf
Ġlearn
ize
Ġwhere
Ġsur
wn
Ġsub
Ġexam
its
Ġinter
Ġpo
own
ew
ond
Ġpers
ts
Ġtrans
ps
hes
Ġpol
ble
Ġexper
Ġcould
Ġco
Ġsupp
ss
ution
Ġnum
ting
ng
Ġhealth
Ġsm
ty
ural
Ġshould
ern
gan
Ġstr
ever
cy
Ġher
ues
Ġwell
Ġbu
ily
stand
ident
erg
oci
Ġty
ines
ied
Ġval
Ġpres
ex
Ġexpl
__
Ġvar
fore
Ġrese
aking
Ġsim
Ġdifferent
Ġevery
ives
ology
ink
ick
Ġke
ade
Ġhigh
Ġworld
ature
Ġ#
Ġeven
ĠHe
Ġform
ists
aw
Ġwater
Ġsign
Ġjust
--------
ants
ism
Ġmake
vent
Ġexp
oy
',
ness
uch
ft
ins
iew
Ġyears
Ġref
ds
Ġset
Ġ[
Ġcommun
Ġcre
ck
Ġdisc
arg
Ġtechn
Ġdata
chool
ĠRe
ices
Ġrequ
ĊĠĠĠĠĠĠĠĠĠĠĠĠĠĠĠĠ
Ġcall
ically
Ġhum
other
..
ax
ential
Ġed
ars
Ġgra
iel
Ġmy
Ġmed
ward
ited
ruct
hat
Ġsee
Ġdet
Ġthen
Ġresult
Ġthose
ually
ages
Ġway
Ġeach
formation
Ġins
hip
Ġbecause
ection
Ġeffect
Ġbel
Ġwhile
Ġprocess
Ġduring
't
Ġfound
Ġart
Ġcount
Ġlong
Ġpat
Ġdec
Ġfol
Ġafter
Ġgener
ron
Ġext
arm
meric
Ġcent
ety
ands
Ġincre
()
Ġloc
",
Ġreturn
ĊĊĠĠĠ
ized
Ġdist
led
Ġprog
iron
ient
Ġsk
Ġread
Ġent
imes
Ġusing
Ġpartic
Ġpub
de
arly
Ġca
Ġcur
Ġlead
Ġaut
Ġrep
els
Ġhist
Ġfact
Ġtest
Ġlife
Ġcomple
Ġfam
ĠAs
ivid
ivers
Ġvery
Ġbeing
Ġfun
Ġown
ning
read
Ġshe
Ġfind
ody
Ġunderstand
iqu
ĠWe
ĊĠĠĠĠĠĠĠĠĠĠĠĠĠĠĠ
Ġright
ases
cent
ork
ĠAmeric
ĠPro
Ġresp
Ġperson
Ġback
gg
Ġstudents
eng
Ġdep
ved
Ġboth
ather
ality
ĠAl
Ġfollow
Ġwrit
ĠFor
ĠThey
Ġimportant
ĠCon
Ġdoes
ĠHow
Ġgl
Ġgrow
Ġcar
ock
put
Ġmin
tle
ĠCom
Th
Ġmuch
dition
Ġmain
Ġconf
viron
ix
Ġche
Ġappro
Ġmon
Ġbefore
""
ĠIf
par
Ġinformation
Ġsom
Ġgrou
ves
Ġsol
Ġsci
Ġel
ving
inal
Ġproble
Ġlevel
ional
Ġstudy
Ġgreat
up
any
Ġend
Ġav
Ġfood
Ġexperi
ĊĊ
ĠAn
nce
io
Ġstart
ale
Ġchildren
Ġgood
Ġmight
Ġschool
eg
Ġwithin
Ġclass
Ġoften
Ġaround
uss
ted
Ġcor
ave
Ġmade
ering
Ġsaid
Ġshow
Ġpop
vern
to
Ġsame
.,
Ġpract
und
ute
Ġtoo
anc
Ġpower
Ġlit
Ġresearch
Ġvis
ier
akes
rain
Ġbr
Ġdesign
Ġop
ec
rent
Ġprovid
Ġactiv
Ġagain
Ġprot
Ġsmall
ĠAr
Ġallow
Ġadv
Ġmem
ocial
Ġmat
ross
itions
Ġserv
ets
Ġcare
iving
Ġposs
ividual
pr
Ġless
ode
Ġexample
.âĢĿ
air
ethod
Ġdown
Ġtake
==
Ġcontin
ters
Ġorgan
rol
Ġday
the
irect
ield
ince
Ġsupport
vironment
ital
Ġcult
omen
Ġquest
Ġhuman
ĠYou
app
Ġtreat
Ġnow
ined
ished
Ġindividual
Ġgu
ared
Ġstate
ĠThese
Ġcalled
ĠInd
land
Ġequ
val
day
der
arge
Ġpoint
ergy
Ġeng
pro
####
Ġnumber
tt
Ġ+
Ġcle
Ġredu
Ġbuild
Ġser
ization
Ġplay
Ġthough
ral
ven
Ġprof
Ġaw
Ġris
name
ired
ulation
Ġbody
ĠBut
Ġdid
Ġmust
Ġplan
ains
ency
Ġpos
Ġbeh
Ġocc
raph
ences
hers
Ġconst
Ġaff
Ġcour
Ġest
âĢĶ
Ġinc
Ġpot
ĠSe
acter
."
ources
Ġhim
Ġcommon
ull
ories
ately
Ġwant
Ġmet
erest
Ġpar
ense
ify
ered
Ġident
Ġincluding
aterial
ah
rue
ption
Ġide
Ġdise
))
ury
ining
iversity
Ġthree
Ġcell
iven
oh
mon
Ġpass
ination
Ġlet
Ġtyp
('
py
ability
Ġeduc
Ġiss
ider
line
angu
Ġelect
ource
ĠNew
ĠWh
ash
ĠAd
ids
ively
str
ateg
ĠEx
ox
less
Ġdon
ertain
itive
Ġsocial
Ġgovern
||
ples
ries
Ġimpro
conom
Ġchar
ead
Ġanal
Ġcreat
lish
Ġmethod
Ġinvol
Ġknown
bers
Ġreal
aj
Ġdel
This
Ġconn
ĠAnd
Ġess
iness
oun
por
Ġwithout
Ġtem
Ġenvironment
ccess
Ġchang
Ġpublic
Ġstill
ner
Ġchange
Ġsignific
Ġbetter
Ġprom
Ġeas
ouse
Ġhand
tain
iod
Ġanother
view
lu
ially
Ġmaterial
ape
Ġreport
Ġplace
Ġlearning
Ġpur
ived
Ġopp
Ġinterest
ĠThere
Ġpresent
Ġdr
oms
pos
ends
Ġproject
uro
St
Ġben
orn
Ġsit
arent
Ġlist
Ġbre
over
Ġspe
Ġbelie
Ġphys
rodu
ior
Ġproduct
Ġfeel
Ġcap
ration
ĊĊĠĠĠĠĠĠĠ
ills
oad
ĠDe
cing
ision
ason
ental
li
bs
Ġlight
Ġdevelopment
Ġsym
ĠHowever
Ġmus
be
Ġimm
Ġele
ĠBy
cond
ological
ĠIs
ething
ug
ently
ording
ances
az
Ġbecome
Ġenergy
Ġopen
Ġmean
atic
Ġfew
hor
Ġcaus
Ġkeep
,âĢĿ
ention
Ġothers
Ġbest
Ġfac
ways
Ġinclude
Ġdirect
from
Ġ&
ats
Ġvari
ank
ium
Ġvarious
Ġname
Ġhistory
Ġcreate
')
Ġtop
ery
']
outh
("
ĠEng
oint
Ġhapp
Ġsever
Ġleg
ocus
Ġperform
Ġhome
Ġproper
agn
Ġstand
Ġet
man
ray
Ġmove
Ġamong
arc
Ġsomething
Ġmark
ected
ton
Ġlook
Ġsaf
âĢĵ
Ġthings
ique
Ġchall
ified
Ġmeas
Ġlangu
Ġfin
Ġtype
atch
ames
ĠRes
ians
Ġlarge
ator
Ġsl
Ġthink
Ġdesc
Ġair
sc
ogn
atural
Ġbas
Ġfunction
erc
ling
ote
ĠPh
oring
Ġagainst
imate
Ġlaw
ients
ext
Ġgroup
Ġoper
Ġmeans
here
Ġrest
Ġcontrol
Ġdev
Ġhere
ograph
path
Ġprovide
':
urther
ĠSh
Ġparticular
Ġanim
Ġhy
Ġseveral
Ġsignificant
ĠAmerican
ember
Ġbus
ĠWhen
ĠâĢĺ
Ġbased
arth
Ġwomen
eral
Ġpain
Ġarea
me
//
sy
rop
Ġtre
ards
Ġfamily
ots
Ġpotential
iver
Ġdue
Ġobject
Ġenc
err
resent
Ġold
Ġcurrent
Ġmult
Ġtry
Ġ:
Ġprogram
ortun
Ġens
aper
Ġeconom
Ġbeg
Ġearly
âĢľ
Ġfil
Ġlab
Ġcal
It
Ġve
Ġtoget
Ġtogether
Ġfocus
Ġaccess
sh
Ġlast
Ġunt
Ġant
Ġes
Ġbenef
['
uture
Ġnon
def
lished
ĠQ
Ġturn
ission
Ġlim
Ġstruct
Ġdisease
br
amp
set
ditions
Ġorig
ploy
ajor
Ġfre
Ġ"""
Ġrisk
Ġsoci
Ġfore
Ġsuccess
Ġmaking
ĠTo
,"
Ġprint
ication
Ġopt
Ġavail
Ġbi
oid
Ġcrit
orth
Ġpossible
work
ĠUniversity
gen
rist
ression
Ġlow
Ġsay
ĠSo
Ġimpact
Ġkey
Ġcertain
aut
ribut
Ġcr
sel
ĠPl
As
Ġbo
Ġmil
ĉĉ
Ġperiod
Ġrun
min
Ġscient
ĠCl
Ġ{
Ġmill
agement
Ġgr
Ġland
idence
cle
Ġfri
Ġblood
Ġcase
Ġ*
Ġ.
ane
Ġsince
hem
ides
Ġspecific
Ġlocal
Ġhead
Ġpost
ann
Ġalong
clus
Ġvalue
Ġorder
ems
----------------
Ġoccur
Ġcome
ĠSp
Ġdiscuss
Ġgovernment
Ġtext
Ġfollowing
olution
ww
ĠEn
Ġacross
Ġconc
Ġwhy
pre
ĠĠĠĠĠĠĠĠĠĠĠĠĠĠĠĠ
cer
icle
Ġaddition
ledge
Ġcost
raw
for
Ġtimes
ĠCol
mit
of
")
ilar
by
ised
ending
Ġcomput
Ġareas
Ġprofess
Ġhig
hy
Ġunderstanding
use
alk
Ġcause
Ġlik
Ġable
Ġtoward
Ġproblem
Ġter
Ġsystems
Ġbro
Ġassoci
Ġview
aster
Ġmajor
Ġcourse
ument
://
Ġmodel
yn
Ġelse
Ġprevent
ole
Ġinvest
ĠIm
],
ilities
Ġarg
ended
ER
Ġintern
ably
Ġpress
Ġ==
Ġhard
idd
Ġline
ights
Ġtool
ooks
Ġrelations
not
Ġspecial
ones
osed
Ġavailable
Ġconsider
Ġspecies
Ġcommunity
Ġfuture
Ġcomb
Ġbehav
ĠZ
ggest
Ġapplic
What
sw
Ġnatural
Ġplant
Ġcomplex
ams
Ġexperience
ina
cul
Ġlanguage
though
Ġrole
Ġx
Ġuntil
Ġrele
Ġrespons
Ġsecond
ĠUnited
Ġcountry
":
Ġmen
Ġpolit
iting
face
Ġrece
Ġyoung
Ġworks
aring
rag
acy
aps
Ġalways
ĠWhat
aces
ĠAt
obal
ĠOr
asing
ask
ope
Ġsuggest
osp
Ġexist
urope
data
Ġlevels
Ġindust
icult
Ġproblems
izing
Ġput
Ġmar
ained
Ġstep
Ġtoday
Ġtechnology
Ġgiven
Ġstrong
Ġlittle
ĠGod
Ġsw
ĠâĢĶ
Ġcir
Ġcharacter
Ġresults
Ġrange
ek
istic
ĠThat
Ġtreatment
Ġage
ored
reen
Ġways
ysis
cur
ths
ators
Ġnecess
Ġobs
Ġvol
Ġbusiness
lement
Ġbook
omm
selves
ont
Ġnext
ivity
Ġfar
Ġpercent
Ġlarg
Ġdeterm
ik
Ġflow
orts
Ġfour
Ġdem
ither
Ġinflu
Ġrepresent
co
We
aging
thing
Ġ$
orld
Ġsimilar
Ġeducation
apt
Ġshort
Ġworking
Ġz
ables
Ġchalleng
Ġessential
Ġpast
ĠAf
Ġspace
Ġill
Ġsing
lab
Ġamount
Ġ**
Ġfree
ym
etimes
atures
side
Ġconcept
ĠEurope
Ġheart
atory
Ġwar
Ġvir
ured
Ġlater
Ġbir
ĠStates
Ġauthor
Ġconditions
Ġsays
duct
Ġneeds
Ġwords
Ġnet
ĠChrist
ĊĠĠĠĠĠĠĠĠĠĠĠĠĠĠĠĠĠĠĠ
Ġgive
ĠWith
Ġinit
ĠTe
eter
NA
ĠBe
une
icro
If
Ġmov
af
onse
Ġpaper
Ġkind
ĠNone
vious
Ġmind
ires
Ġimprove
Ġpolic
Ġey
inc
ule
Ġresources
Ġhaving
Ġskills
Ġfield
Ġbegin
Ġconsum
Ġparent
Ġexpect
Ġcells
Ġrad
Ġquestion
ĠOne
Ġteac
Ġpred
Ġtradition
Ġknowledge
ibility
``
ours
Ġchanges
Ġappear
Ġjour
Ġissues
Ġestab
lection
Ġstory
ĠCan
ili
Ġupon
Ġmot
Ġconcern
pecially
Ġrequire
ĠOn
Ġrelationship
Ġstrateg
arget
etic
Ġdifficult
Ġwhether
ee
Ġlog
ening
Ġtypes
Ġprim
Ġsens
Ġask
ush
Ġtemper
Ġenough
ales
Ġlikely
Ġrecord
iple
ĠInst
Ġusually
ger
Ġdays
nal
inking
Ġhistor
apter
Ġaddress
ĠSome
let
import
ĠAll
aching
How
chie
Ġmakes
Ġopportun
ĠCent
Ġaway
...
Ġnorm
Ġsum
Ġquestions
Ġfurther
====
iction
Ġresearc
son
ruction
oney
Ġprotect
ĠUS
ising
omes
ried
Ġever
cient
ware
Ġgoing
ffic
Ġdig
Ġindividuals
Ġleft
Ġpath
Ġaccount
aken
oot
ibr
ued
Ġi
Ġemploy
type
ification
Ġlay
Ġhigher
AT
Ġgrowth
class
Ġur
Ġbig
Ġ<
To
='
Ġcentury
ĠNational
Ġcollect
Ġfull
ney
Ġcountries
Ġsuper
._
amm
ĠAfric
aves
Ġincrease
Ġsitu
Ch
Ġconnect
rans
plic
Ġfund
ooking
An
Ġsure
Ġstat
Ġscience
Ġnever
Ġrecogn
erence
Ġdescrib
ES
Ġexc
Ġphysical
Ġcy
ĠMed
ohn
Ġside
add
reg
Ġbrain
Ġhowever
arl
Ġplants
arr
verse
Ġdeath
IN
ĠBl
Ġterm
Ġunique
Ġespecially
Ġground
Ġgroups
Ġabove
Ġevent
There
Ġactivities
Ġleast
Ġmaintain
Ġthroughout
Ġcontain
########
test
most
ault
elling
ĠFr
Ġparticip
agine
Ġemb
ilt
Ġsubject
Ġsound
alse
Ġnear
Ġachie
Ġpersonal
edi
sych
utions
ĠSc
Ġmodern
ready
lying
Ġaffect
sequ
file
ON
Ġpopulation
Ġdam
Ġstudies
Ġneg
Ġreally
fact
Ġrather
ptoms
Ġbecame
ison
Ġeffects
Ġreason
rug
rect
ils
aim
ites
mod
Ġcancer
Ġquality
Ġrelig
Ġliter
Ġnature
asc
Ġ`
Ġpractice
rel
illed
Ġchem
Ġloss
atives
nces
ĠBrit
Ġassociated
unt
ises
Ġpattern
att
For
Ġbuilding
issue
Ġansw
roll
Ġstre
Ġcases
Ġpatients
ample
Ġdetail
Ġsize
Ġcho
Ġhold
Ġsomeone
Ġvers
Ġlower
alf
Ġgeneral
AS
Ġfactors
overed
enn
Ġmillion
Ġcomes
Ġexplore
opy
Al
Ġmeet
Ġalready
Ġstudent
eds
Ġglobal
rams
Ġdoc
".
oman
Ġword
ene
ok
Ġsimple
inary
Ġregard
ript
Ġnut
mb
ID
Ġintrodu
Ġcity
new
Ġliving
augh
Ġsingle
Ġprob
iques
Ġindic
Ġabs
Ġmembers
ĠLe
Ġwind
verage
Ġthemselves
Ġmaterials
])
time
Ġsource
Ġtowards
ips
ĠWorld
Ġphot
Ġproduction
Ġobserv
ival
Ġrespect
Ġdom
Ġeither
Ġonce
Ġseen
rad
Ġdeg
Ġ/
ĠX
anced
Ġthought
Ġdeep
ring
ĠGerm
ott
ung
leep
Ġut
col
inter
AR
iol
ĠWar
Ġjob
Ġaccording
Ġpay
Ġhouse
ley
Ġresearchers
Ġdone
org
ae
Ġemot
Ġinteract
Ġteam
hern
Ġfile
ened
Ġver
Ġcut
rict
ĠShe
ird
enc
Ġrequired
ules
Ġhelps
Ġcreated
Ġactivity
adem
earch
're
ipp
Ġanalysis
Ġfail
Ġproducts
ĠEnglish
ĠJohn
epend
ĠComm
Ġaspect
hold
Ġengine
Ġinteg
Ġonline
Ġlive
itud
Ġfall
Ġnp
my
Ġfig
Ġsymptoms
Ġmethods
fully
Ġfrequ
Ġmedical
Ġlot
Ġmarket
Ġmanagement
fer
go
otes
ler
Ġtot
Ġeffic
Ġneeded
ĠGo
oose
Ġaction
fl
Ġanimals
Ġpolitical
Ġpie
Ġcirc
Ġidea
ivil
place
Ġsent
rand
Ġevidence
Ġquick
Ġflu
ĊĠĠĠĠ
ĠStud
Ġreduce
Ġtarget
Ġnecessary
aries
Ġbreak
Ġsociety
Ġsoft
Ġsurface
Ġrecomm
Ġpopular
ĠHealth
Ġcolor
Ġensure
Ġred
ĠPr
way
Ġwriting
load
Ġrights
Ġsun
Ġmass
Ġactually
Ġparts
lt
key
Ġmess
Ġseem
Ġvalues
Ġlives
clusion
Ġport
oph
sp
list
bon
ze
ĠMay
Ġsometimes
yle
Ġyet
Ġoffic
chan
reng
Ġclimate
ulations
cial
Ġentire
aling
Ġge
Ġarr
Ġshare
Ġincreased
Ġrate
Ġcame
ystem
Ġapproach
oration
Ġresponse
When
Ġfriends
Ġcommunities
Ġeffective
Ġsal
ma
Ġprovides
Ġdest
Ġstress
Ġencou
Ġclear
ĠAm
ĠAss
ustom
Ġbelow
erous
Ġimage
Ġwhole
ĠWhile
Ġdoct
ĠGen
Ġnational
Ġsubst
aged
ublic
Ġdeveloped
ply
olic
Ġmeaning
Ġpressure
Ġarch
Ġhealthy
erve
OR
ender
Ġexerc
idered
II
Ġservices
Ġevents
urch
Ġcontext
osis
Ġability
Ġ%
acks
Ġtaken
Ġincreasing
Ġcontinue
ches
Ġmusic
Ġmoney
ores
lex
Ġ)
Ġavoid
Ġ_
Ġrelated
ĠAb
ttp
acc
Ġcompon
Ġinstead
Ġadult
nov
Ġemerg
ĠAmerica
atter
istance
Ġstates
eration
Ġtaking
wh
Ġconsidered
light
ctions
ĠDr
Ġ|
Ġtell
ĠMan
ĠInt
ront
oon
ĠIntern
itation
ength
ĠGe
Ġmicro
imately
Ex
Ġculture
Ġallows
ges
amed
Ġann
ume
Ġreview
Ġarticle
Ġmach
Ġcannot
Ġthera
ĠSci
Ġchallenges
Ġsite
Ġfive
Ġpriv
play
Ġtraining
hing
Ġeconomic
Ġwhite
ump
Ġreading
ĠCal
part
based
Ġbal
Ġtechniques
Ġcheck
Ġenvironmental
Ġdrug
Ġposition
Ġtools
ĠAfter
irm
Ġmor
ĠEm
ai
Ġbehavior
Ġtraditional
Con
ĠCont
order
Ġexcept
Ġharm
utes
init
ribute
Ġclos
ari
Ġdoing
aced
hib
Ġassess
het
iment
Ġeveryone
Ġskin
iddle
amin
Ġclean
come
like
Ġcompet
Ġitself
ĠSouth
Ġcomputer
aving
Ġbegan
oes
Ġpublished
Ġsense
eed
ĠApp
ĠEarth
Ġstreng
uck
pose
Ġreact
But
aches
ey
esc
ops
ĠNorth
pri
pid
mber
Ġweek
Ġlove
astic
itor
Ġcritical
iet
ype
Ġremain
Ġweight
Ġdemon
fig
ground
know
Ġla
Ġcondition
dom
Ġmeasure
ĠHist
empt
Ġbenefits
ele
Ġoffer
Ġcontent
aily
Ġtrue
Ġaccept
Ġmatter
Ġblack
Ġsepar
Ġdraw
Ġbring
Ġrev
Ġtook
Ġmedic
isc
Ġprote
joy
Ġcultural
Ġsat
Ġcat
Ġfeed
ĠAct
Ġexperiences
Ġinstance
Ġregular
ĠAust
cont
Ġparents
Ġcru
Ġgreen
Ġhab
Ġterms
itary
bl
istics
pite
args
Ġconduct
raft
Ġoil
Ġsust
Ġimplement
Ġexpress
yl
Ġidentify
Ġcapt
="
Ġprevious
ields
Ġattention
avor
back
.)
Ġstructure
vere
EN
icles
equ
You
Ġstories
oll
Ġetc
itution
Ġdat
orks
Ġproduce
inf
text
ĠGu
hood
Ġregion
Now
rown
Ġfish
head
Ġdemonstr
Ġmultiple
Ġselect
Wh
Ġmonths
One
ift
ging
artment
ername
Ġsex
Ġprovided
ister
eb
Ġdiet
Ġface
alu
Ġforms
Ġpractices
Ġtotal
ĠRep
IS
Ġminim
Ġunit
Ġdesigned
Ġsuff
uel
Ġcompany
Ġelements
Ġindustry
isions
Ġpositive
ror
Ġcreating
Ġconsist
ided
ĠHis
Ġhours
čĊ
Ġvide
bo
Ġreflect
error
Ġalmost
Ġshows
Ġhalf
ĠSu
Ġyourself
Ġaim
Ġpsych
ows
Ġheav
ober
Ġbar
Ġservice
Ġparticularly
Ã©
ensive
Ġ__
date
Ġfat
Ġdoesn
Ġanaly
Ġsoil
Ġschools
Ġrecent
Ġclaim
Ġdog
umn
Ġfarm
Ġcontact
right
Ġeth
Ġinvolved
Ġprograms
Ġthing
ners
Im
Ġcontribut
Ġtemperature
ike
elt
Ġmechan
ĠMore
irit
Ġsources
urs
True
Ġsimply
ĠYour
["
itle
thon
Ġcommit
rast
Ġlink
ese
hel
Ġoriginal
arily
Ġclose
Ġsleep
Ġdeb
ming
aff
ccording
rim
Ġeasy
fil
iation
AN
Ġgas
Ġer
ster
Ġextra
Ġenjoy
ties
Ġheat
Ġste
Ġchemical
ĠPe
Ġideas
Ġmax
ched
Ġspread
rage
Ġenh
Ġtravel
ĠMar
âĢ¦
čĊĠĠĠĠĠĠĠ
ription
rem
rs
Ġsurv
rior
oin
Ġbuilt
ĠNo
Ġaware
orpor
Ġstarted
Ġled
Ġissue
Ġhistorical
vey
Ġpict
ĠDep
Ġlonger
Ġfem
ĠAg
Ġperformance
Ġgreater
Ġstop
ĠJew
Ġwritten
Ġoutside
Ġinj
Ġsurround
Ġmodels
ĠPar
porary
su
ĠYork
ounter
ribution
enced
ĠMe
ension
Ġaud
estern
num
Ġwild
Ġcompan
Ġlands
Ġbelieve
Ġpoints
fect
rig
vant
].
itute
ography
Ġdiagn
Ġfinanc
Ġdecl
Ġbeaut
Ġcorrect
ĠState
ait
Ġslow
Ġmovement
Ġfire
Ġbehind
Ġprogress
curity
Ġthreat
Ġassert
Ġmental
Ġleading
yond
IT
Ġmedia
ervation
ĠResearch
Ġbooks
oved
Ġscientists
Ġcommunication
Ġcode
Ġmom
Ġones
opt
ĠCons
Ġuser
Ġremember
che
Ġfram
izations
ronic
Ġstandard
Ġviol
eters
ĠCo
minist
Ġuses
Ġevalu
ĠCanad
ilies
Ġcustom
Ġadapt
So
Ġbroad
Ġtakes
inating
apan
Ġaltern
Ġfru
ĠBritish
issions
Ġcolle
Ġdeveloping
where
ricult
rate
rew
standing
ban
Ġec
username
Ġsafety
Ġstay
Ġcaused
ĊĠĠĠĠĠĠĠĠĠĠĠĠĠĠĠĠĠĠĠĠĠĠĠĠ
Pro
Ġnormal
Ġdaily
inally
ached
ĠLet
oor
size
ologies
Ġappropri
Ġwond
Ġwrite
Ġnumbers
Ġgetting
ades
Ġgrowing
reci
ls
Ġinside
Ġhumans
ĠCar
rought
Ġsix
dd
Ġincludes
Ġimportance
amb
Ġcauses
ufact
Ġpolicy
ged
Ġsmo
Ġ>
Ġbasic
Ġanswer
ĠUs
Ġleaders
Ġsafe
Ġinnov
ĠNe
Ġcomplete
ĠUnder
chol
Ġaccur
Ġreve
Ġinsp
ĠPre
Ġsustain
word
Ġprimary
Ġfeatures
Ġprep
bol
Ġinput
Ġlate
Ġ--
ED
amples
Ġlooking
Ġpage
Ġwebs
Ġtalk
Ġefforts
ĠPer
Ġexact
umb
IC
ken
uth
ttps
Ġtax
Ġachieve
ament
ĠMany
ials
duc
pes
Ġsqu
fort
resh
Ġshap
Ġguid
Ġopportunities
Ġscre
Up
Ġthinking
Ġshape
tings
cles
Ġoverall
Ġdiv
Ġinvestig
Ġindepend
atively
Ġvisit
Ġaverage
Ġcross
Ġstru
ĠFl
Ġcompared
Ġvalu
Ġdamage
ĠSchool
Ġshown
Ġcamp
Ġearl
'll
Ġappl
Ġdecision
haps
Ġcit
www
room
erson
Ġstrategies
ĠQu
Ġbeyond
rench
ounds
Ġrequires
itude
Ġforce
Ġbacter
Ġpatterns
Ġprocesses
Ġrout
Ġwid
Ġkids
Ġnetwork
Ġpoll
Ġful
ĠJapan
Ġseries
By
gar
ĠIndia
term
Ġwarm
Ġlo
Ġbill
ederal
ously
Ġlack
Ġscientific
resp
Ġelectric
Ġquite
uments
Ġtown
Ġearth
Ġmagn
Ġprobably
ĠSim
log
Ġtheory
ciples
Ġattempt
Ġfoods
Ġquickly
Ġinternational
Ġcover
pper
Ġrequest
Ġeverything
Ġcarbon
rated
Ġcollab
ĠThrough
Ġcool
Ġpack
Ġoutput
Ġinform
inct
ST
ĠDes
ream
asons
aly
Ġcolon
Ġgame
Ġeat
met
čĊĠĠĠ
append
cret
hens
Ġdocument
abet
Ġpredict
more
AC
Ġvisual
Ġprec
oday
Ġappreci
Ġtri
Ġforest
isms
Ġeasily
rie
point
ĠRet
Ġago
vention
Ġpatient
Ġbase
iency
Ġanimal
lease
Ġnight
ellow
Ġlif
iring
Ġhost
Ġfamilies
Ġperspect
Ġir
Ġadditional
Ġvaluable
illi
Ġsect
Ġvariety
Ġteachers
idge
Ġgenerally
Ġsearch
Ġwood
Ġcivil
Ġdigital
Ġpoor
Ġgain
Ġcou
Ġveget
Ġtree
ilos
just
oles
ĠScience
ĠReg
Ġdifference
erate
Ġacadem
ceed
Ġsoftware
alking
Ġserious
Ġinfluence
Ġancient
Ġcrucial
ĠAustral
Ġlines
uge
AL
Ġbecomes
Ġdou
ession
vert
mission
Ġactive
Ġreported
ĠCO
izes
Ġfinancial
Ġmanufact
igen
lim
inks
value
"]
Ġsituation
itch
uild
osing
Ġlarger
ĠMin
Ġteaching
Ġfit
ana
oud
encies
ief
Ġadded
ĠArt
odes
ĠPres
ynam
Ġoptim
Ġbit
Ġprin
Ġcompanies
Ġhyd
roup
Ġsection
Ġisn
odies
Ġincluded
ha
Ġestablished
Ġtable
Ġapplications
Ġcalcul
alls
RE
itable
Ġproviding
bor
Ġaspects
ĠKing
uries
Ġox
Ġtend
Ġimages
rial
Ġremains
Ġsil
Ġpowerful
ancy
wise
print
ucle
ret
ĠChina
Ġprior
IV
ĠPart
Ġapplication
On
Ġproduced
Ġfeet
ulate
ĠEuropean
ille
Ġbur
Ġspeak
Ġhands
Ġfriend
Ġfost
ĠComp
Ġsecurity
Ġconflic
ibrary
ĠTra
ception
Ġ,
mar
ĊĠĠĠĠĠĠĠĠĠĠĠĠĠĠĠĠĠĠĠĠĠĠĠĠĠĠĠĠĠĠĠĠ
ĠFrom
Ġsteps
Ġhor
Ġgard
emporary
ĠJust
Ġconcent
anks
lands
Ġbad
Ġthus
Ġmention
phas
Ġult
ĠCount
ĠDo
Ġep
Ġtransport
Ġsoon
Ġdirectly
Ġreligious
cks
Ġthous
Ġeye
Ġquant
care
enge
"""
med
Ġvirus
Ġspirit
ĠRuss
rror
bit
Ġsn
ino
Ġimmedi
ĊĠĠĠĠĠĠĠĠĠĠĠĠĠĠĠĠĠĠĠĠĠĠĠ
itect
Ġang
Ġdang
Ġvideo
arv
uff
requ
ev
Ġdetermine
ran
Ġestablish
ĠNot
Ġappropriate
ĠÂ
mat
ying
Ċĉ
Ġrelationships
Ġast
Ġbelief
Ġresponsible
Ġprojects
ĠPol
ĠMy
Ġoffers
Ġgot
ience
Ġnamed
Ġfasc
Ġestim
Ġwaste
Ġdiseases
Ġgradu
Ġconvers
Ġrules
Ġplaces
Ġfoot
Ġcele
ifically
Ġexpos
Ġos
Ġmother
Ġhot
Ġdevices
Ġpropos
Ġbab
Ġdiverse
Ġmilitary
Ġrefer
Ġagree
Ġexercise
ĠDis
Ġproced
assert
Ġincorpor
Ġexpected
Ġ@
ĠEd
Ġtrying
Ġinstall
Ġroad
Ġsus
Ġrates
Ġobjects
Ġcomplet
Ġfinal
hors
orders
Ġcred
Ġdecre
Ġheld
inated
Ġnav
dict
Ġmix
Ġasked
Ġattack
Ġexploring
Ġoptions
Ġtrees
Ġinterpre
Ġseems
ecause
Ġcard
illing
Ġund
Ġsuccessful
Ġlegal
Ġsea
Ġstrugg
Ġrich
ĠEduc
off
Ġtypically
ĠFrench
Ġfront
Ġmis
Ġlimited
hemat
comp
ET
Ġcomponents
iful
ĠGl
Ġnation
ding
Ġjourney
Ġinvolves
Ġpurpose
used
writ
Ġwhose
ĠCour
Ġvacc
Ġhighly
Ġrob
ellig
Ġbreat
Ġfavor
Ġjud
rong
Ġsold
life
Res
inst
inate
Ġthird
Ġuseful
Ġcentral
Ġraise
Ġperfect
dir
Ġreach
istry
Ġtherefore
At
Ġstri
Ġclin
Ġdevice
format
Ġobtain
ĠJu
Ġexamples
iles
None
ĠAlthough
oming
Ġlearned
ĠAfrican
Ġminutes
ĠHer
oat
uman
Ġgoal
df
ipment
param
atform
Ġlabor
Ġeyes
Ġdry
Ġcosts
Ġmemory
Ġproperty
Ġcontinu
ĠMod
eks
Error
Ġfair
Ġvit
ĠFirst
Ġload
water
ĠSm
Step
ĠOf
Ġwent
Ġtransform
Ġdemand
========
ĠAfrica
Ġlength
change
overy
Section
Ġsevere
Ġnegative
Ġchoose
rap
Ġcommunic
And
ĠMost
ĠIndian
Ġmonth
Ġchapter
asks
Ġanything
Ġrespond
ĠAc
attle
Ġfast
Ġrapid
ashing
cape
Ġprotection
've
Ġprofessional
iot
na
Ġspeed
Ġsequ
useum
ĠOther
Ġalthough
urg
Ġparam
ĠChristian
Ġcateg
Ġexplain
Ġpan
Ċĉĉ
Ġstatus
Ġvia
Ġfa
Ġnovel
lation
Ġsolution
cean
ml
ĠJan
Ġfight
ĠNow
Ġmount
Ġsignificantly
ocks
Ġsymbol
fficient
Ġcapital
ech
Ġsupply
Ġcontribute
ĠRem
Ġcam
Ġdifferences
Ġcapac
Ġbehavi
Ġregarding
undred
Ġversion
ager
Ġcommand
Ġroom
Ġlost
comment
oe
Ġcontains
ĠTechn
state
ĠVal
Ġhabit
Ġadults
Ġwide
Ġshared
Ġautom
Ġadvant
Cl
iny
Ġdark
ĠMus
Ġbound
Ġblock
ius
year
Ġconsequ
Ġcitiz
rition
roduction
omet
Ġbeginning
uk
Ġprinciples
uary
Ġworkers
Ġbrought
Ġhttp
Ġing
Ġemphas
Ġencourag
Ġstructures
ĠAug
ĠJes
Ġusers
Ġbalance
Ġcarry
Ġstage
Ġdim
Ġtrust
ĠTrue
ĠOver
cious
iter
Ġveh
____
wide
Ġtests
Ġactions
ĠCenter
Ġseason
Ġprivate
Ġexec
Ġdoctor
erences
ĠGree
Ġsec
sect
iers
Ġforces
Ġappe
Ġreceived
Ġliterature
Ġdiscovered
with
iforn
Ġnews
gn
acters
Ġagricult
Ġaccom
Ġmag
osition
Ġtim
Ġneigh
Ġgraph
oting
Ġacid
Ġlimit
Ġdefin
Ġcontinued
idents
Ġprotein
Ġhon
Ġadminist
Ġsaw
He
unction
Ġdidn
Ġinteresting
Ġearlier
ios
Ġbirth
Ġdate
ĠWest
Ġder
Ġfunctions
ĠMon
Ġsolar
Ġdiscover
Ġlocation
Ġfear
ĠGerman
ĠOur
ocol
EC
ĠTw
Ġvirt
Ġforward
unch
Ġfields
Un
Ġlaws
udd
EM
Ġreasons
Ġleaves
Ġcenter
ĠII
Ġmessage
abetes
Ġinfection
ĠĊ
zz
efore
Ġorganizations
estic
Ġcra
Ġitems
Ġbenefit
```
ĠHere
Ġteach
Ġtesting
ternal
Ġrecommend
aught
Ġmole
Re
():
Ġtrade
Ġmeasures
Ġweeks
start
omy
ky
Ġemp
ĠEven
Ġteacher
ifornia
Ġbra
Ġmachine
Ġcompre
Ġvo
Ġdepend
Com
Ġtherapy
Ġroot
Ġresource
Ġconstruct
aid
ĠGreat
###
Ġefficient
abilities
ĠHistory
ser
__(
Ġwon
Ġsmaller
ĠDevelop
Ġprop
book
ĠEach
arian
Ġcontroll
votes
Ġten
ula
ĠInstitute
Ġchallenge
ĠChild
Ġapply
ĠAnt
ought
Ar
plit
pril
Ġtold
Ġcopy
Ġegg
Ġshall
Ġopportunity
Ġillust
ditionally
ĠTrans
Ġinitial
ira
ony
Ġessay
Ġdeal
Ġreceive
config
Ġdynam
ancing
Ġpiece
Ġeating
rote
Ġauthors
bre
ĊĠ
que
Ġlocated
Ġvict
Ġserve
Ġphilos
Ġthr
Ġassign
Ġequipment
Ġ\
Ġdegree
''
Ġwebsite
ĠInternational
Upvotes
ĠDepartment
atur
Ġhundred
apers
Ġnumerous
With
Ġhope
Ġutil
ĠCommun
ĠSystem
ournal
max
Ġexisting
Ġdisplay
Ġnames
coh
Ġconstant
ĠSw
irection
âĢ¢
Ġax
Ġdetails
Ġrepl
outhern
Ġjournal
ingu
################
Ġmoment
airs
Ġproperties
Ġconcepts
Ġiniti
gram
ulated
Ġcollection
ĠTheir
Ġtask
ĠOct
Ġlen
inese
Ġsolutions
Ġrare
ĠLear
Ġconcerns
known
Ġfeature
Ġarchitect
Ġeffort
ĠServ
Ġexactly
Ġcharacters
Ġalg
AP
Ġdescribed
urt
ĠThen
Ġexpand
Ġweb
Ġnothing
Ġsites
eper
rogen
ocr
ensity
Ġdecisions
Ġexposure
ĠJesus
Ġscen
index
ĠCalifornia
Ġconnection
Ġmiddle
Ġburn
Ġbott
Ġgives
Ġdead
Ġnarr
ĠDuring
Ġsave
igenous
Ġaffected
Ġconstruction
These
ĠMarch
Ġorganization
Ġidentity
ĠEl
AD
Ġice
Ġinstru
Ġallowing
RO
Ġcontemporary
ĠAmericans
ĊĠĠĠĠĠ
Ġnucle
ests
Ġallowed
elines
usion
Ġnearly
Ġmid
Ġfollowed
ibly
ned
Ġplanet
Ġacqu
uration
Ġrecently
ĠWell
Ġhimself
Ġmut
Ġhous
Ġmaxim
Ġleave
Ġgoes
works
urb
Ġrule
Ġbacteria
Ġmig
Ġplatform
Ġswe
Ġolder
orthern
ME
Ġplanning
Ġweather
Ġguide
Ġgoals
ĠRed
xi
comes
Ġbeautiful
Ġreduced
ero
Ġmiss
Ġded
orage
ĠAccording
pan
Ġfresh
Ġconnections
Ġtechnologies
Ġscale
While
vis
:**
itis
Ġbackground
ĠHol
Ġinfect
Ġhol
och
Ġstandards
Ġpow
mosp
Ġfuel
rees
ogle
model
loc
Ġsugar
gy
Ġheard
Ġbox
tes
Ġfib
Ġborn
ilit
Ġsurrounding
aled
ĠRiver
Ġvalid
Ġbul
Ġlargest
ĠEngland
Ġstyle
ulum
Ġnavig
ogen
Ġqual
plications
Ġdivers
ĠCanada
cons
Ġrelevant
Ġcore
ags
see
Ġcelebr
Ġcold
Ġperhaps
Ġfascinating
rael
Ġhyp
Ġalone
Ġden
Ġsummer
ĠJune
ĠFurther
force
Ġrock
ĠInter
reme
Ġeffectively
iliar
ĠOnce
Ġmember
Ġ}
Ġbasis
Ġapprox
Ġconfig
Ġpeace
Ġgender
Ġapplied
Ġcompletely
Ġequal
Int
rupt
Ġstra
Ġdecided
ĠIS
ĠSept
ffect
edom
mitted
Ġelement
Ġworth
Ġtou
aste
Ġcoast
Ġdistance
ĠAugust
Ġsetting
can
ĠKe
Ġpolicies
Ġpromote
ĠAssoci
Ġdefault
Ġwrong
mp
ĠPress
Ġcoll
men
ros
Ġpurch
ounc
Ġinvolve
Ġlayer
atus
Ġacademic
Ġdistinct
Ġprinc
ara
ĠUse
Ġteeth
Ġcop
Ġfindings
Ġpy
Ġnorth
ht
Ġfather
Ġtru
--------------------------------
cipl
Ġdetect
iding
Ġhosp
Ġfully
edia
info
user
ĠDav
Ġrise
Ġeducational
ĠChinese
Ġanti
ico
Ġsurg
era
Ġcand
sub
ĠToday
CO
Ġemail
Ġfix
Ġrunning
Ġnote
Ġfigure
ĠEducation
Ġcurrently
rical
âĢĿ.
ĠDay
conn
Ġmathemat
Ġeconomy
Ġmath
Ġsigns
ĠWilli
Ġemotional
ees
ĠApril
cohol
Ġwatch
ica
Ġrepe
izer
lam
itutions
Ġson
Ġinstruct
hest
Ġbodies
Ġimag
Ġenter
Ġmoving
ĠMc
Ġprofession
Ġmap
Ġmob
Ġrisks
Ġpet
Ġgiving
Ġwanted
Ġworked
Ġschol
Ġoccurs
Ġwrote
([
len
AM
aul
ĠConst
Ġjoint
ford
Ġmiles
Ġinsights
Ġcomfort
Ġlived
Ġevolution
Ġmaster
ĠRead
ta
Ġwoman
Ġcoming
Ġalternative
Ġcry
Ġspecifically
ION
Ġassum
ĠPark
Ġreality
Ġord
hab
Ġpicture
ĠFalse
Ġextrem
Ġpassed
idden
Is
rab
ĠAre
ĠJuly
Ġfactor
Ġchoice
ĠSoci
Ġlat
Ġcapacity
ĠGovern
IL
ashington
pped
Ġoccup
rief
Ġking
yd
Ġcities
ping
Ġgir
ĠCur
Ġsouth
Ġintellig
net
ĠCity
Ġcompar
trans
ĠPat
EL
Ġadjust
Ġfinding
Ġtrend
Ġcontract
run
Ġphen
Ġgenetic
Ġindex
Ġimagine
Ġsurpr
ondon
ĠChurch
icip
craft
Ġdistribution
lin
aur
ĠPeople
ĠUnderstanding
Ġrand
Ġgold
ama
Ġfaith
Ġtopic
related
ename
Ġassist
Ġweak
Let
Ġcitizens
bal
Ġdied
oses
Ġsociet
False
ĠTest
Ġchanged
Ġfamous
Ġstore
ĠDon
Ġfederal
Ġgames
**:
norm
Ġbirds
ham
anging
);
wards
mark
Ġoperations
Ġillness
Ġfemale
ĠHigh
board
ses
ĠPresident
elcome
tical
ching
Ġrefers
ias
ĠIsrael
Ġnutri
ares
Ġresistance
Ġactual
Ġcommonly
ĠCong
ĠJournal
ĠChapter
array
Ġhappens
Ġcommerc
Ġeasier
Ġregions
Ġsexual
cast
'.
ĠBlack
ĠChar
Ġrequirements
enty
Ġplaced
Ġbecoming
Ġdeeper
orith
rid
Ġstrength
à¤
Ġatmosp
Ġformer
rix
going
cember
Ġexhib
Ġhelping
Ġexperiment
Ġrat
comm
ĠSince
xiety
Ġpresence
anish
Ġsample
ructure
Ġhappen
ifying
Ġprice
Ġtrack
zing
Ġpregn
Ġpopulations
Ġevol
Ġanyone
do
Ġthousands
Ġexcess
Ġidentified
Ġfeeling
Ġformed
ĠChe
Ġmonit
Ġvital
Ġstarting
Ġdrugs
Ġsem
Ġunivers
Ġwinter
Ġchanging
Ġvary
Ġshowed
Ġurban
aign
Ġreducing
Ġrot
Ġsharing
Ġdiabetes
Ġprepar
call
Ġremove
Ġexpression
ĠUnion
Ġfruit
Ġdefined
ĠMex
omb
ĠLab
Ġforeign
Ġcounter
aters
Ġopin
ĠSpec
Ġgets
ĠEast
Ġtopics
Ġsolid
Ġlabel
Ġrandom
Sh
dis
ĠTr
Ġattract
eline
ĠLaw
Ġdirection
Ġunf
Ġadvanced
Ġhealthcare
Ġeventually
Ġtasks
Ġmal
ĠVir
ĠDNA
field
Ġletter
gs
Ġmouth
Ġ[]
ache
iveness
ĠCounty
Se
etime
Ġconnected
Ġcomprehens
Ġtox
Ġwa
gl
ouncil
Ġfeelings
roy
Ġsituations
house
Ġball
Ġplans
Ġvill
Ġadvance
semb
ovember
Ġboard
Ġfilled
np
ĠJewish
Ġmentioned
Ġhair
Ġimmune
Ġstim
Ġreaders
ĠAlso
Ġready
Ġresulting
Ġpen
Ġunc
Ġawareness
Ġconsumption
iable
train
ĠPy
Ġpartners
Ġlessons
Ġhop
Ġglass
orb
Ġdespite
Ġbond
lay
ĠWashington
Ġcausing
Ġsort
ightly
PA
Ġpieces
ĠĠĠĠĠ
Ġtrain
Ġconclusion
Ġseparate
ĠSeptember
Some
ĠJanuary
ĠOctober
hips
Ġign
ĠAdditionally
Ġsac
Ġlib
cking
ĠConf
ĠBi
However
Ġblue
Ġtele
Ġbed
Ġplaying
amental
encing
Ġthoughts
Ġchance
ĠRoman
ether
Ġspect
Ġexperim
Ġdial
atin
Ġeight
Ġtechnique
iest
Ġpref
ped
Ġgarden
Ġinterpret
rops
pected
Ġbelieved
Ġapproaches
Ġexperienced
ube
down
Ġinfl
ĠAut
Ġpick
Ġid
HE
Ġvision
Ġincreases
ĠDef
ĠArch
dat
ĠBo
Ġhom
US
Ġgave
Ad
Ġstaff
Ġrow
rant
Ġexpert
rick
Ġdepending
Ġsustainable
Ġmanage
ophy
Ġmedicine
Ġerror
OT
Ġbaby
Ġencourage
All
Ġ+=
Ġcultures
ĠGermany
rome
Ġbelong
Ġcompl
input
Ġdivid
Ġmission
ĠLondon
Ġpresented
Ġoutcomes
OS
ĠFeb
Ġbillion
Ġnative
Ġprofessor
iance
Ġobserved
Ġchurch
Ġcontrast
Ġfrequently
Ġappears
Ġcogn
Ġrelatively
ĠRel
PS
Ġincome
Ġclasses
Ġ{}
Ġwalk
raction
ographic
arser
lor
Ġbusinesses
Ġengage
Ġcolumn
respond
Ġwonder
Ġmajority
orch
Ġconv
Ġemissions
Ġ...
hand
fe
Ġplays
Ġsuggests
resents
Ġtruth
gra
Ġbuy
Ġdiscussion
Ġhelped
asion
Ġlanguages
ĠProf
Ġfiles
alt
url
rieved
Ġonto
After
alle
Ġcircum
Ġrecords
Ph
tered
Ġadvent
urance
Here
Ġheavy
Ġfelt
ris
Ġreference
Ġtissue
ĠThus
Ġcoord
Ġsounds
Ġcreation
cap
ressive
čĊĠĠĠĠĠĠĠĠĠĠĠ
ĠBar
Ġprocessing
antic
Ġap
no
Ġoffice
orge
Ġtransfer
Ġinternal
hetic
Ġplastic
Ġheight
gypt
Ġcharacteristics
ĠAustralia
ĠCor
ygen
flow
abase
Ġoption
ĠSom
Ġformat
Ġfert
Ġriver
ĠEnvironment
UT
Ġimproved
ĠSur
Ġreports
qual
cular
Ġincreasingly
code
Ġâ
uit
level
count
Ġprefer
ĠWestern
Ġturned
ĠWater
annel
ĠDecember
arning
Ġmotiv
othes
ĠFrance
Ġdisorder
ĠBecause
Ġliqu
ĠSan
Ġimmediately
Ġsav
icon
Ġalcohol
Ġnotes
Ġensuring
ĠGeneral
Ġdisorders
Ġmist
ributed
ĠUK
Ġengineering
Ġmuscle
action
Ġclinical
Ġrepresents
Ġclassroom
vision
Ġmale
iced
Ġindustrial
Ġgene
rame
Ġrace
Ġconflict
Ġinstitutions
ded
ĠSol
rest
Ġcolors
pat
ĠMedic
Ġgeneration
https
Ġiron
Ġvul
Ġalgorith
des
Ġdiversity
Ġanxiety
Ġinterests
Ġenhance
Ġdive
Ġparticipants
Ġelif
ĠHouse
ĠExpl
icense
ĠSociety
Ġjo
road
ilarly
Ġrelease
ruary
Ġcollege
being
Ġtransl
Ġhomes
ĠData
Ġcommercial
Ġtrig
plot
ref
ensions
Ġmetal
Ġmaintaining
Ġantib
ĠDi
Ġ->
Ġapproximately
osystem
ologists
Ġwin
Ġintroduced
ING
rations
ĠUnit
ĠAng
Ġparty
Ġleads
Ġelim
ails
ĠInstead
Ġviolence
Ġreligion
Ġchallenging
Ġfacilit
Ġremov
Â°
object
Ġingred
ĠNovember
ixt
aset
Ġconsequences
Ġvast
azing
Ġmeeting
Ġmo
ishing
ĠEgypt
oding
Ġdecades
Ġbreast
ĠSocial
Ġstorage
Ġadvoc
acing
empl
Ġclearly
Ġtemperatures
Ġjustice
Ġfreedom
ĊĊĠĠĠĠĠĠĠĠĠĠĠ
ords
icated
Ġtour
Ġfilm
Ġcourt
uses
Ġpp
Ġaren
Ġhuge
Ġnutrition
Ġspeech
Ġterrit
eding
ĠIts
Ġfocused
Ġinsect
Ġunits
Ġmulti
Ġpractical
ĠSee
Ġmilk
Ġbuildings
ĠMoreover
Ġindependent
Imagine
leg
const
Ġcareer
LE
akers
Ġengaging
Ġstrategy
icial
Ġemotions
tee
Ġpric
Ġassessment
UR
sol
enth
ux
Another
box
Ġseek
Ġbatter
ortunately
Ġstatement
omas
ĠMat
?"
cript
Ġreplace
Type
gin
ĠFurthermore
ĠSch
Ġexcell
Ġkeeping
oma
ĠRev
Mod
zer
vironments
Ġdri
ibilities
Ġcreative
Ġcycle
Ġminor
Ġstudying
ĠPublic
Ġtreated
erved
Ġsettings
ĠOb
itage
Ġextremely
Ġphenomen
Ġexperts
ĠAssociation
shape
ĠAv
join
atically
Ġcontinues
aint
spec
Ġinterested
Ġcorrespond
Ġprimarily
Ġcook
Ġconducted
Ġdepression
Ġcollabor
tra
ctor
Ġpret
ĠPal
mary
Ġelectricity
Ġsurvey
db
Ġbottom
Ġstar
Ġju
Ġtrou
ĠPlan
Ġisol
Ġhear
Ġtrib
ii
Ġcampaign
Ġwis
Ġorganic
Ġpul
ĠTherefore
enses
Ġflex
][
ĠHar
Ġnotice
then
Ġwidely
Ġefficiency
Ġcarried
iverse
Ġdram
Ġprepared
DA
ĠWhy
Ġspot
Why
gment
inn
Ġlegis
Ġgenerations
Ġsand
Ġframew
Ġgrant
poses
Ġbud
ressed
ĠDevelopment
ĠGreen
Ġsecret
ĠBra
ĠWrit
Ġbone
rum
pen
result
rep
Ġhighest
eria
Ġspring
Ġsynt
Ġwall
ĠGra
Ġcombination
Ġdrive
Ġpros
Ġstring
Ġhousehold
Ġextract
ĠJapanese
Ġfavorite
da
ĠAN
Ġmoved
Ġartists
Ġmovements
Ġinvent
Ġperspective
Ġperformed
inger
Ġfamiliar
Ġthick
Ġplayed
ĠMor
lege
Ġrecommended
They
Ġconservation
ĠFound
Ġchronic
output
Ġoperation
ĠUN
Ġspiritual
Ġsong
Ġspent
orial
Ġfundamental
Ġgather
top
Ġseven
ĠGreek
ste
ologist
iling
ĠWilliam
emic
Ġworldwide
oyal
Ġlibrary
Ġmeant
Ġsignal
Ġresponsibility
Ġchoices
Ġsaying
Ġbeliefs
Ġenvironments
Ġfine
Ġcultiv
Ġvolume
ĠRetrieved
Ġoxygen
Ġconver
reed
Ġvulner
Ġsuppl
SA
Ġple
Ġadding
Ġprofessionals
Ġconsult
Ġcovered
ĠMr
Ġdoub
ĠHuman
Ġfailure
Ġkid
ĠProgram
Ġproperly
osen
Ġmel
Ġpoly
Ġexternal
process
Ġuniversity
Ġremind
Ġpal
Ġincred
Ġdra
Ġsyn
igure
ĠĠĠĠĠĠ
isation
Ġlandscape
sec
Ġsignificance
imal
Ġserved
cal
Ġembra
ĠST
âĢĿ,
Ġhappened
ĠOrgan
Ġarm
Ġdegrees
image
Ġimpacts
ocal
http
Ġarticles
Ġitem
Ġcenturies
Ġseeds
oted
ĠJames
Ġtitle
dim
Ġlesson
roph
Ġadvice
rence
Ġcast
Ġexamine
Ġdogs
Ġseed
ĠIslam
Ġplot
oke
Ġgenerate
oper
rating
Ġcarefully
ingly
En
Ġpapers
dent
Ġsamples
Ġupper
ĠCongress
Ġorigin
rics
ĠUsing
Ġocean
Ġagg
Ġhighlight
ĠMark
Ġsmart
Ġmere
ĠSpanish
label
Ġletters
icians
Ġround
Ġclosely
Ġcomponent
Ġscreen
Ġarray
Ind
ĠEvery
apping
Ġmer
Ġsatis
Ġcontaining
otal
Ġfinally
Ġvolunt
Ġroll
Ġfigures
Ġsend
Ġwealth
ĠInternet
Ġpreviously
ulf
ĠFebruary
ĠAir
ĠFood
ĠMary
za
Ġpotentially
Ġimpl
Ġrul
othing
anch
Ġecosystem
())
Ġadop
Ġamounts
lines
'),
ĠOff
last
().
Ġnetworks
Ġinflamm
Ġlooks
Ġreleased
ĠSub
anges
Cont
Ġerr
map
Ġreferred
Ġdescribe
essage
Data
Ġinjury
Ġflood
rich
unk
Ġpurposes
Col
((
RI
Ġvegetables
CC
active
Ġowners
ball
Ġhttps
Ġdestroy
Ġconfirm
pathy
ĠLa
Ġaid
Ġnuclear
ĠBoth
ĠMal
Ġlinked
ĠLord
Ġjobs
ĠVol
Ġpu
Ġseeking
eli
ollow
Ġpages
ĠMich
estion
Ġaccurate
write
Ġadvantage
wargs
Ġpresident
Ġourselves
rm
Ġgod
Ġtum
Ġleaving
Ġradio
stream
Ġstraight
Ġtraditions
Ġconvent
Ġmeat
Ġdangerous
Ġremoved
Ġsurgery
nic
Ġcapable
Ġbattle
Ġestimated
Ġformation
Ġongoing
Ġcredit
ida
Ġpromoting
Ġcomment
Ġroots
Ġroles
Ġexplained
Ġtail
ĠChildren
That
Ġmaybe
itness
bi
Ġmostly
Ġradiation
Ġreb
Ġenable
inations
Ġpossess
ĠStudents
Ġpollution
Ġsou
Ġsets
.__
which
inent
From
Ġrelative
Ġotherwise
Ġapart
ificial
Ġhorm
Ġgrade
Ġsubjects
Ġpush
Ġrecognize
Ġsquare
rapy
ĠSy
Ġvess
body
ipped
Ġguidelines
CH
No
anguage
Ġvictim
Ġneuro
Ġcharg
ĠEv
ĠAD
ĠSupp
asure
Ġphase
[:
Ġupd
ĠCollege
ogue
ellect
Ġrevolution
Ġeggs
MS
'm
Ġrain
Ġdetermined
aker
Ġtal
Ġsecure
Ġargument
ĠAsia
aughter
](
ĠRemember
ĠDavid
ĠPhys
ĠRepublic
otic
Ġfaced
Ġatmosphere
ĠProject
ĠFore
Ġmotor
roc
Ġvitamin
Ġpun
ij
ĠWeb
ypes
Ġvoice
ensor
Ġcombined
Ġnor
Ġdefinition
Ġtreatments
ĠRef
arrow
.;
Ġfarmers
Ġgenes
Ġinfections
ĠImagine
uted
Ġsports
Ġtechnical
Ġintelligence
Ġargs
Equal
Ġmonitoring
ĠMake
Ġgrand
cs
ĠProt
Ġcircumst
ĠCouncil
Ġappreciate
Ġearn
Ġsupported
Ġreaction
ĠMet
faces
hist
Ġfacts
Pl
Ġtaught
ĠHave
ĠBel
ĠTur
Ġfrequency
Ġdict
Many
Ġannual
Ġmanufacture
reet
riage
lig
Ġworry
Ġinvolving
iled
Ġperiods
ĠAlex
Ġofficial
rastructure
Ġlooked
riculum
ĠLife
Ġfaster
Ġnoted
well
Ġkn
CT
Ġbarri
Ġwhom
ĠDem
Ġcollaboration
Ġoffered
Ġknew
ĠCre
ald
Ġspend
First
zy
Ġcognitive
Ġtalking
hent
pping
Ġauthority
asp
Ġhour
Ġultimately
Ġnations
Ġhelpful
Ġrenew
ndrome
Ġslightly
Ġanswers
Ġplease
ĠHel
Ġcharge
Ġhearing
lo
Ġdiscrim
python
Ġalign
Ġshowing
ĠGeorge
Ġcompleted
Ġgrass
ĠBas
essor
Ġkilled
Ġscholars
Ġlung
ĠIsland
Ġmit
Ġhit
icks
Ġideal
Ġtiny
isher
uilding
Ġconsid
Ġexistence
Ġreached
ĠMuseum
Ġstream
Ġcere
arp
ĠHistor
yles
ĠOpt
cell
ĠClass
****
ĠGet
ns
ario
iration
ĠPort
uster
Ġsubstant
return
ĠFam
astern
OD
Ġdescription
Ġvent
Ġexcellent
Ġcris
ycl
Ã¡
Ġtruly
Ġperspectives
Ġimproving
ĠAdd
Ġsalt
Ġreduction
sum
Ġsmooth
ossible
Our
pred
ĠSet
Ġmaximum
Ġtooth
ĠSun
AB
Ġisland
Ġproposed
alysis
lete
inant
Ġdie
making
iant
ander
umber
Ġtraffic
Ġknows
Ġenab
ĠUp
ĠPhD
ĠBudd
crete
According
Ġyield
Ġexposed
Ġobvious
Ġbrief
Ġkept
ĠPaul
Ġglob
ĠSam
ĠRober
ĠHIV
Ġphone
Ġbank
Ġcandid
wood
Ġelectrical
ĠBen
Ġlayers
pass
Field
Ġparticles
ĠÐ
ĠSk
normal
Ġinterview
lib
ĠSuch
but
ĠTex
Ġchemicals
Ġkinds
long
ested
Ġsolve
Ġacknow
ria
Ġamazing
Ġdeliver
Ġexchange
ya
Ġraised
icit
Ġparties
Ġintended
ĠCath
fit
ĠOut
Ġoperating
TS
ĠCult
Ġsufficient
Ġdiscipl
Ġmuscles
Ġremained
Ġgoods
Ġflowers
ague
Ġoffering
More
Ġcertainly
ĠMount
Ġdrawing
Ġcoal
Ġfirm
Ġsche
ĠArab
ago
ĠList
Ġban
json
Have
ĠGovernment
Ġindicate
Ġmotion
oughly
coming
Ġimmig
gi
Ġsubsequ
step
New
Ġcomputers
nes
Ġextreme
Ġregional
Ġselected
Ġthemes
Ġgovernments
Ġmarg
ĠService
stract
Ġraw
ras
Ġviews
Ġregul
win
ĠKeep
tenance
Ġaffects
ĠâĢ¦
ĠÃ
ĠMiddle
eer
Ġdepends
Ġliquid
Ġsett
arsh
ĠSer
Ġhyper
Ġfollows
ville
clusive
Ġdouble
Ġflat
ĠJews
icious
ĠRich
inding
Ġcloser
ny
Ġyouth
'],
Ġresist
ado
ĠCentral
Ġfruits
Ġship
DF
cers
Ġregularly
Key
Ġfunding
aturally
Ġdro
---
Ġnutrients
itors
(),
Ġhappy
what
Ġappoint
Ġconclud
ictionary
....
Ġcreates
Ġinternet
Ġedge
Ġfrag
cest
Ġreturned
params
Ġspaces
Ġfort
conomic
Ġwasn
Ġtexts
Ġhandle
group
Ġthin
Ġtips
ĠPract
Ġdiscovery
Ġmort
rows
Ġsuggested
Ġfab
Ġbird
Ġrein
Ġasking
Ġcert
Ġkill
ĠCourt
roid
ĠIN
stood
acific
Ġhospital
Ġnerv
while
CE
den
Ġmainly
Ġhidden
Ġinformed
UN
Ġbegins
Ġinnovative
Ġdedicated
eless
ifies
ĠDirect
band
Ġmedium
Ġinvestment
Ġprocedure
orking
Ġrapidly
ĠAI
ĠMexico
Ġabuse
Ġcareful
Gen
ĠCivil
ogether
nam
Ġproteins
Ġtried
Ġwaters
Ġforced
uls
Ġabsol
Ġdocuments
Ġdoll
onic
ĠLearning
ĠÎ
ĠSecond
ounced
parent
Ġdisapp
othe
Ġstorm
ĠLatin
plicated
wid
ears
Ġclim
Ġdiagnosis
Ġsouthern
Ġtoxic
ĠBritain
valid
Ġbright
Ġsupporting
ĠWhite
ĠHen
ĠAtt
Ġmoist
Ġcircumstances
Ġclient
Ġfluid
weight
Ġoccurred
Ġstone
Ġbehaviors
Ġleadership
Ġprocedures
post
Ġprepare
Äģ
html
Ġwindow
aks
Ġleader
Ġstars
istan
ifications
Ġfoundation
Ġconsistent
ĠDist
anged
Ġmanner
Ġmillions
Ġsuitable
ĠTwo
rust
Ġintellect
Ġsector
Ġbrother
ilience
Ġselection
Ġpoet
Ġlies
ĠNav
Ġmode
Ġyellow
free
Ġemployees
Ġpictures
Ġ!
Ġstation
Ġinfrastructure
ĠMuslim
Ġloved
ĠMac
instance
doc
Ġaccompl
api
Ġmorning
ĠNet
Ġpretty
Ġera
herent
ĠNAS
ĠSpace
dden
sk
Ġdomestic
Ġbiological
Ġingredients
Ġunderlying
rec
Ġexplan
Ġskill
Ġdecide
atever
Ġvehicle
Ġjoin
Ġmatch
Ġinteractions
Ġbow
Ġnorthern
yp
ĠOld
Ġformal
method
Ġdu
Ġsettle
Ġdrop
Ġinstrument
Ġprices
Ġcollected
Ġthor
urity
Ġpray
HO
bed
Ġwear
ĠTexas
lick
Ġwalls
ools
Ġobst
Ġguidance
ĠCam
Ġinstruction
ĠPost
osite
Although
Ġelev
Ġdelve
Ġneighb
ician
Ġwet
Ġharmful
Ġpersist
Ġappearance
Ġrecorded
Ġvirtual
berg
Ġoral
verty
gal
Ġclick
ĠTechnology
filename
Ġsnow
Ġhaz
Ġcorpor
Ġpoverty
IR
Ġvariable
exp
rolog
Ġsudden
Ġextent
ĠJe
Ġdatabase
rian
IG
Name
Us
Ġremark
Ġlinks
nel
la
CS
ĠManagement
Ġdriving
ĠInc
wer
mas
Ġfostering
ĠQue
Ġfacilities
ups
Ġcourses
ĠGoogle
Ġresol
ĠAnother
Ġfoss
Ġ('
Ġmoral
ĠDesign
ancer
Ġdrinking
Ġwest
Ġwait
assertEqual
Ġdiscussed
Ġfeedback
Ġemergency
uing
rates
omic
Ġtro
Ġdepth
Ġsensitive
Ġstrengthen
Ġamb
Ġserves
Ġdetailed
Ġblog
ĠMart
Ġentirely
Ġcommunicate
Ġfilter
iform
De
Ġminimum
ĠMiss
Ġcutting
Ġlisten
Ġpresc
ĠThomas
check
Ġfill
ĠStand
ĠLike
Ġdefine
Ġstruggle
Des
Ġsides
ĠInf
Not
ĠTime
Ġinstitution
Ġintroduction
Ġrecovery
osa
Ġlots
Ġchain
ĠSal
Ġexamining
Ġmessages
Ġtouch
Ġsen
ĠBible
Ġagricultural
ĠBr
Ġshel
Ġgirls
Ġperman
version
scale
ĠPython
cel
that
kes
Ġstarts
arant
Ġshif
Ġclaims
Ġhero
Ġspeaking
ĠJer
split
ĠWork
Ġcontrolled
ĠEnergy
Ġcomprehensive
Ab
Ġinnovation
Ġtypical
west
ĠLeg
Ġattacks
agon
Ġresponses
Ġshaping
Ġregulations
string
Ġlargely
Ġstages
Ġenem
roke
Ġaudience
Ġaddressing
ĠSometimes
Ġmatters
Ġpaid
under
utive
ĠBay
Ġvaccine
position
Ġlose
Ġrural
Ġsell
Ġpark
ĠPsych
Ġgrown
ĊĠĠĠĠĠĠĠĠĠĠĠĠĠĠĠĠĠĠĠĠĠĠĠĠĠĠĠ
ĠKore
Ġrecognized
ceived
Ġconsists
create
Ġchosen
ditional
ĠCare
Ġexists
ĠMedicine
LA
lean
My
Ġtraum
ĠPower
Ġdrink
Ġliver
ĠStep
Ġmechanisms
Ġsequence
Ġcm
IM
Ġband
Ġahead
ensus
Ġrestrict
ĠWhe
icing
Ġhabitat
ĠMedical
ĠEmp
Ġtorch
Ġaccepted
Ġmetab
Ġintervention
Ġwants
Ġcars
umin
ĠLou
Ġtrial
Ġpolitics
Ġnode
Ġagriculture
Ġancest
Ġpolice
ĠRec
Ġfro
Ġreprodu
Ġweap
Ġ("
arter
hi
Ġadequ
Ġaimed
Ġassistance
Ġlatest
ĠMem
Ġdiam
Ġprompt
ĠDise
agers
ĠSen
ĠSaf
ĠOF
Ġcooking
Ġment
Ġinteraction
Ġcrops
Ġopening
Ġopinion
ĠJud
Ġabsorb
Ġneut
Ġsuccessfully
anes
Ġsin
Ġphr
Ġstudied
Ġvariables
Ġfiction
Ġstret
Ġdut
Ġnarratives
ican
Ġharv
ĠWomen
ĠMil
Ġknowing
Ġproport
ĠFranc
Ġnit
Go
ĠTreat
Ġstem
ĠCommon
Ġscript
ĠAny
Ġbudget
Ġcrisis
estyle
Ġwave
ĠRussia
oxide
ava
ĠVirgin
gu
ĠEngine
expected
Ġhundreds
ester
Ġcatch
Ġserver
uous
Ġdivided
ĠMicro
erving
ĠDec
raint
Ġindigenous
ĠElect
Ġreform
Ġadopt
Ġcouple
Americ
Be
sis
ĠBer
Ġtransition
Ġrelax
Ġentry
Ġafford
ĠIr
Ġdiscussions
Ġprotected
conds
ĠNASA
Ġresidents
Ġmeasured
rot
Ġsurvival
Ġdoctors
Ġsession
rat
Ġapparent
Ġdownload
Ġaccounts
Ġnaturally
Ġcalls
Most
Ġallerg
ĠRussian
Ġacts
node
List
Ġneighbor
itudes
icate
Ġvehicles
host
Ġcritic
Ġprinciple
orous
Ġpositions
Ġparameters
ĠInformation
Ġsuffering
perty
Ġmachines
Before
Ġbeauty
Ġgar
ĠStudies
ĠPacific
ĠAtl
Ġalt
Ġuniverse
racy
lers
Ġimplications
Ġstock
Ġrepresentation
chers
Ġhunt
Ġaf
Ġbrand
Ġmedications
Ġwalking
ocratic
Ġexploration
Ġtherm
Ġattend
Ġreject
Ġresilience
Ġshapes
Ġwaves
organ
iate
{}
Ġdepartment
erals
Ġtun
Ġnearby
aud
agues
main
Ġethical
Ġdistingu
ÃŃ
Ġcoff
Ġconscious
Ġsimpl
ĠForm
Ġtrends
Ġastron
NAME
Ġcreativity
rants
Ġmaintenance
Ġgenerated
ael
ĠFe
Ġintric
pers
using
Ġboundaries
Ġvisible
ĠAcadem
ĠRights
ĠSimilarly
Ġunderstood
Ġsan
Ġstronger
Ġshift
Ġce
van
IP
orrow
BC
Ġcardi
Ġwire
Ġconcerned
Ġcurriculum
Ġbroader
Ġprevention
Get
Ġframe
Ġwildlife
Ġtells
Ġimmun
erent
Ġconcentration
Ġconfidence
float
Ġportion
Ġmassive
ĠFoundation
cience
Ġinner
Ġframework
olf
ENT
Ġboost
ascular
Ġproducing
Ġsick
ĠKnow
Ġremaining
Ġmobile
Ġwife
Ġkil
Ġhabits
inet
ĠBet
ĠBook
Ġrig
Of
Ġofficials
Ġimplementation
ĠNews
Ġassemb
Ġgained
ĠWind
Ġsubstance
Ġabilities
Ġarmy
Ġobtained
Ġengagement
Ġmanaged
alian
Ġmanaging
Ġsweet
ĠWho
ums
ca
Ġsignals
Do
Ġcloud
Ġgreatest
Ġeast
section
Ġdesired
Ġappeared
eal
Ġprogramming
mic
ĠExper
elled
Ġnarrow
Ġswitch
range
ĠMass
Ġnoise
olicy
img
Ġwitness
Ġseeing
Ġsed
annels
Ġadvis
ĠPers
Ġnurs
Ġfif
pol
Ġath
Ġarchitecture
ampl
DE
Ġexpensive
Ġimprovement
Ġoverl
Ġconventional
ĠSov
Ġexplains
Ġdemonstrate
ads
ĠControl
Ġfloor
ĠArmy
Ġreader
oto
VID
Ġcrim
ansion
request
ĠCommission
Ġdesigns
bar
Ġnan
dev
Ġdecrease
Ġrecognition
Ġpregnancy
Ġexperiments
ishes
During
Ġfold
Ġtaste
Test
status
iday
Ġmanip
Ġstored
Ġsuc
Ġimpossible
Qu
Ġelectronic
Ġmarked
Ġimper
aming
pet
acts
Ġpure
ship
Ġtested
pha
asive
Ġ]
Ġsentence
ĠDisc
Ġlocations
Ġsoldiers
ĠNor
ka
Ġsatell
ipe
bert
cium
Read
Ġgun
Ġpig
Ġinflammation
Ġfailed
Ġinjuries
Ġparalle
values
Ġcustomers
Ġpersons
Ġmanufacturing
Ġslowly
Ġprev
Bl
Ġbrown
cules
ĠRobert
ultane
Ġrail
ashion
Ġphilosophy
Ġconsidering
ĠTim
ĉĉĉĉ
oom
Ġunless
Ġfoster
Ġtransportation
iosity
Ġtoler
Ġclosed
Ġfacing
ĠDespite
cher
ĠDel
Ġvs
Ġsky
rey
Ġwestern
Ġexercises
ĠConn
Ġkm
Ġcapture
ĠEnvironmental
ota
Ġrecip
ĠProv
Ġhoriz
Ġinstructions
Ġeveryday
Ġparticipate
Ġhorse
Ġindeed
Ġplayers
Ġfle
Ġdefic
Ġenables
ĠScient
ĠVis
Ġages
ĠKey
ato
Ġpand
Once
ĠGroup
Ġrevealed
Ġkit
Me
Ġplatforms
BN
Ġprem
Ġprison
Ġexciting
table
================
Ġagreement
Ġartificial
Ġtherap
ĠCourse
ocab
Ġstick
Ġcos
ĠGood
ĠSmith
Ġmac
ixture
LO
ĠSea
Ġrhy
Ġcrop
otion
Ġremote
urd
ifier
Ġshop
Ġderived
ĠDiv
Ġdental
lements
Ġinches
ĠDet
pack
Ġsecondary
Ġstands
ML
Ġcompetition
ango
ĠNature
Ġtit
dule
Ġfixed
Ġpil
ĠIdent
kwargs
Ġagreed
Ġpair
Ġmonitor
Ġincorporating
Ġfloat
Ġcomposition
Ġrub
Ġconsumers
ĠTHE
vity
names
open
wo
appy
Ġmixed
Ġphotos
Ġextended
Ġheritage
inity
Ġchart
umes
lected
ĠLake
App
Ġpsychological
Ġstanding
ĠPhil
ĠSte
Ġpossibly
ĠMont
ĠInv
Ð¾
Ġusage
ipping
ĠFlor
Ġsyndrome
Ġvibr
?âĢĿ
Ġarrange
SE
Ġuns
Ġforests
Ġplate
Ġturns
Ġensures
Ġdynamics
Ġdepict
Ġpip
Dr
ada
Ġinspired
operation
rc
ĠSec
Ġmuseum
esh
Ġdirector
Ð°
Ġincredible
Ġsole
Ġrepeated
Ġauthent
ourse
Ġdeaths
default
keys
Val
Ġpassion
ien
Ġevaluation
Ġanalyze
pace
Sc
ĠFin
Ġshell
Ġprotocol
Ġmathematics
ĠStudy
Ġsusp
ĠCatholic
Ġbeneficial
Ġwriter
Ġpull
client
ini
Ġexamination
fortunately
Ġ!=
Ġbones
Ġbot
Ġintellectual
ĠThink
Ġliterary
Ġagencies
Ġarms
Ġstated
Ġtheore
Ġachieved
Ġunknown
ĠSar
Ġorganized
cycl
Ġmedication
Ġexpectations
Ġresolution
ĠCD
Ġvillage
Conclusion
Ġmarine
umps
Ġaccuracy
UL
Ġthread
ĠSum
Ġemployed
Ġsupports
Ġwhereas
itivity
Ġopened
Ġerrors
ented
wing
imer
ĠCreat
Ġwriters
Ġmeaningful
Ġconfident
Ġscore
Ġadopted
Ġlimits
uation
Ġcategories
ĠMain
asters
Ġdust
aser
nn
Ġrecycl
Ġdeeply
erated
ĠAP
ĠBre
Ġbio
ĠComput
iat
Ġpowers
Ġarts
Ġdescribes
ye
Ġfunctional
Ġarguments
dered
ĠCarol
function
Ġchildhood
Ġethnic
Ġrepresented
Ġevaluate
Ġarrived
Ġdemonstrated
orter
Ġtur
Ġforget
dep
Ġhar
Ġemerging
Ġreactions
Ġscene
Ġlect
Ġcomments
throp
ulin
Ġmanif
ulating
oral
icking
Ġexplo
arity
BT
Ġbrings
Ġconversation
Ġabund
Ġdistributed
Ġappreciation
Ġrealized
Ġdynamic
uh
Ġfell
Ġadministration
Ðµ
Ġdoor
zen
ĠAmong
ĠNative
Ġhouses
Ġinhab
Ġholds
Ġlisted
Ġsuffer
!"
Ġrely
Ġwisdom
Ġextensive
Ġcart
ocation
urns
ĠCharles
ĠHenry
.'
},
essions
ĠJose
length
hus
ĠWild
Ġaqu
ports
osc
Ġworse
Ġble
iology
Ġcollective
AA
Ġbehaviour
Ġnegot
Ġgrew
Ġpump
Ġaccel
ĠIntroduction
Ġdecline
ĠWil
Ġsupplement
Ġindustries
Ġdiss
Ġflight
ĠConsider
SS
she
item
world
Ġfewer
Ġleaf
rip
Ġinsurance
ĠAcc
Ġunus
Ġtransmission
Ġinfected
aria
Ġblocks
Ġintake
Ġhealing
esity
obj
Ġzero
Ġpresentation
ala
tage
usiness
color
Ġratio
Ġcamera
Ġfertil
Ġpossibility
Ġtechnological
Ġalongside
Ġchief
ĠCompany
update
Ġimmediate
Ġmarriage
ĠExt
ersonal
hemical
Ġcoffee
ributes
ocracy
ĠSoviet
Te
phone
Ġcreatures
athe
Ġmatrix
'd
riend
Ġnormally
Ġmountain
ĠOx
Ġdiscrimination
ena
Inst
Ġseemed
irt
Ġempathy
models
rons
ĠLibrary
pread
Ġsteel
Ġsurvive
ĠYet
Ġfighting
Ġmolecules
Ġtwice
indu
Ġdensity
Ġgall
Ġcomfortable
ĠThose
ĠPC
Ġmarkets
Ġreturns
such
ĠDiff
gent
ĠReview
lets
Ġdesire
Ġnumpy
Ġindicates
words
actions
Ġnavigate
Bob
how
Ġlearners
Ġtall
war
Ġmissing
Ġmoon
Ġapplying
ĠProfessor
Ġcolleagues
ivalent
ĠSl
Ġcouldn
Ġauthorities
Ġlatter
Ġbroken
Ġalle
frame
itative
Ġwish
âĢĻ.
Ġdin
mm
omach
AG
ĠGlobal
Ġexpressed
Ġbreathing
ĠCanadian
ĠIP
message
Ġinsight
Ġpursu
ĠAbout
Ġcompare
'])
Ġyounger
Ġlifestyle
Ġsocieties
Ġadvantages
ventions
ĠMo
Ġwilling
Ġguess
Ġsocietal
base
Ġpublication
Ġprove
Ġstyles
Ġobservations
ighter
assion
ctic
mean
sm
gest
Ġinject
Ġnecessarily
Ġpublish
det
cluding
bra
burg
ĠMag
ropical
ribe
claim
Ġstrict
Ġsimultane
Ġgal
Ġpainting
idx
rovers
Ġupdate
Ġoptimal
Ġcommitment
page
stone
Ġfant
ona
Ġmamm
Ġlistening
sor
Ġcontinuous
Ġhousing
born
aked
Ġsupplies
Ġcrime
Ġdebate
Ġaxis
Act
Ġ['
Ġfocuses
Ġagency
"),
Ġshut
ĠBro
ĠEss
Ġvulnerable
Ġmyth
Ġconstit
edy
ĠLong
Ġcategory
Or
ĠHam
Ġcompr
Ġcoun
PR
ĠFinally
Ġsucceed
Ġfav
Ġparticipation
Through
ĠEst
Ġaer
Ġtf
adata
Ġorganisms
rays
ibl
Ġgreatly
called
oves
Ġdomain
Ġadventure
escription
Ġpreval
ĠOnly
Ġinstruments
Ġaccum
Ġoriginally
ĠOh
points
ĠLouis
Ġfabric
Ġthereby
loss
ua
Ġfly
real
Ġdepos
ĠGold
hav
Ġelectron
Ġear
Ġsections
dem
Ġcircuit
atal
ĠLand
Ġeld
width
dr
Ġregist
Ġdealing
Ġengaged
angle
Ġverb
Other
ĠAp
Ġturning
idespread
Ġdifficulty
Ġemerged
Ġbreath
Ġphysics
Ġphotograph
cm
Ġends
ĠAustralian
Ġartist
ĠNations
ployment
Ġthreats
ĠVirginia
Ġthanks
Ġfellow
Ġbread
ĠTem
Ġmechanism
ĠLanguage
Ġmeal
Ġholding
Ġaccessible
Ġorient
Ġdeli
ittle
ĠLicense
Ġindependence
Ġsight
Ġindu
Ġconsideration
ĠTre
ĠEth
Ġdistrict
Ġwhatever
holders
anda
III
Ġguarant
Ġbattery
ambda
Ġske
hesis
Ġgrid
Ġteams
Ġemployment
fulness
Ġobjective
Ġmagnetic
ĠRevolution
Ġantibiot
Ġcomplicated
Ġserving
ĠBefore
hop
Ġaircraft
Ġempt
Ġfunds
CD
target
ĠNon
Ġwarming
Ġreliable
Ġwaiting
Ġstability
Ġcards
ao
ĠCurrent
oples
Finally
esting
Ġopposite
Ġbear
Ġdrain
ĠFrank
MP
allow
Ġaccident
Ġtrained
sts
gans
Ġroutine
Ġtrip
ĠCheck
Ġuncertain
inction
Le
Ġinsects
Ġdoubt
zed
ĠFederal
obs
source
cor
Ġmaps
Ġsod
]:
Ġdelivery
Ġtap
Ġunexpected
Ġoccasion
press
ĠParis
Ġchick
ĠAdv
Ġsought
Ġadministr
pring
Ġflag
ĠEarly
ĠCommit
Ġlaun
Ġmeals
Ġaffecting
ĠOffice
RA
Ġeditor
ĠEmpire
Ġlogging
Ġconsumer
Ġpreparation
ictor
Ġnoticed
Ġmodule
Ġattached
Ġfalse
elihood
Ġspending
Ġcharacterized
ĠStr
content
Ġreduces
liament
Ġconcerning
Ġsplit
Ġstake
author
Ġacids
Ġsubstances
osph
ĠRad
Ġplayer
Ġdemands
Ġinitially
issues
Ġencounter
ulty
ĠIndigenous
Ġplt
bin
ĠType
ĠLabor
Ġtheories
Ġcuriosity
Ġstable
Ġbeings
ometry
jango
rog
rus
Ġheavily
Ġalter
.|
ette
Ġfossil
ĠCy
Ġadm
Ġcomparison
ĠUSA
kin
Over
rine
Ġborder
OL
anches
ĠOpen
ĊĠĠĠĠĊĠĠĠ
Ġvessels
Ġcup
Ġcorn
Ġteen
Ġbutter
Ġsales
Ġwidespread
Ġproduces
inder
pare
Ġsummary
ipal
ella
Ġcalcium
Ġpurchase
Ġmathematical
Ġenthus
Under
ĠEnd
Ġpartner
ĠDig
ora
ĠSym
Ref
Ġdrawn
Ġregardless
Set
Ġnewsp
Ġstomach
Ġforth
Ġcomplexity
TP
SP
ocket
ommod
ĠConstitution
esson
Ġcompounds
Ġremarkable
Ġprofound
Ġsurve
ĠItaly
ĠIll
itter
Ġfiber
ĠFlorida
ailed
Ġhumanity
ptions
Pe
Ġdf
Ġunable
Ġreven
Ã¼
comfort
ĠHome
icide
isk
reshold
Chapter
fold
parse
ĠColumb
Ġdance
Ob
Ġnone
Ġinherent
ĠMill
asts
Ġcong
Ġlic
Ġtea
Ġracial
Ġpron
ĠCOVID
Ġputting
Ġpermanent
ĠSouthern
Ġcontributions
ĠAccess
Ġinhib
Ġlaunch
ribed
Ġrid
Ġmood
Ġadequate
ĠRob
Ġclothing
Ġperm
ishment
Ġtroops
Ġreserv
čĊč
ĠNatural
Ġpreventing
rd
Ġsmoking
ĠLib
child
ĠStreet
Ġhus
Ġconvey
Ġproceed
Ġinfluenced
Ġjson
Ġexpansion
Ġdelay
Rem
Ġlegs
Ġsurfaces
MA
Ġcriteria
Ġhappening
Since
rency
Stud
Ġreplaced
Ġswim
ĠBur
Ġoperate
Ġoblig
Ġjoined
terol
orph
Ġtrouble
ĠModern
Ġsubsequent
Ġoverw
Ġcommitted
Ġcul
Ġlens
opic
ĠKh
Ġlimitations
Ġinitiatives
Ġmand
ĠFre
draw
Ġdecade
Ġangle
Ġconcrete
Ġinsert
Ġforg
title
ĠAnn
ĠFrancis
ĠISBN
Ġsubstantial
asy
Med
Ġsubs
ĠRome
Ġtu
Ġgone
ĠHaw
Ġmys
isters
ĠTer
ĠEnc
rooms
edge
Ġasp
Ġchannel
Ġstreet
Ġfocusing
Ġcraft
________
ĠDisease
ĠTake
Ġdent
Ġrefuge
ĠPeter
Ġcryst
olesterol
Ġhypothes
Ġcenters
EP
Ġconference
ĠDan
Ġprotecting
Ġdisturb
first
ĠColor
ĠPub
Ġconflicts
Ġcolour
ĠMean
Ġfacilitate
Ġterritory
Can
Ġfract
earchers
Par
Ġvac
Ġpercentage
fun
Ġruns
Ġtut
Ġchrom
Ġlaboratory
Ġfashion
atial
Ġrealize
orig
Ġmild
Ġlabels
Ġzone
ulary
ĠReport
zil
Ġreward
Ġintroduce
Ġq
Ġgluc
Ġaims
vol
opyright
Your
Ġminds
Ġwouldn
erior
ĊĠĠĠĠĠĠĠĠĠ
Ġdetection
ographical
Ġrice
Ã³
iratory
Ġroof
Ġseconds
Ġathlet
Ġpreserve
asty
Ġsymbols
Ġru
ĠAge
Ġresulted
Ġ{'
soft
Ġdecor
Alice
ĠOcean
idity
Ġcontrovers
Ġintent
ĠIre
Ġinequ
Ġreveal
Ġtrials
ãģ
abs
Ġflour
Ġveter
ĠDoes
Ġsacr
Ġgap
ĠTV
Ġinstalled
Ġtheme
eenth
Ġinvestigation
Ġproof
current
Ġjump
uts
Ġsheet
irus
agraph
Ġconstitution
ffective
Ġstuff
Ġneck
Ġdaughter
forcement
Ġneighborhood
ĠClin
Ġalike
Su
ĠTor
Ġbridge
ĊĠĠĠĠĠĠĠĠĠĠĠĠ
Ġmitig
Ġdisrupt
Ġlibr
Ġrecommendations
Ġidentifying
ih
ĠExamples
SD
eties
Ġinterf
=[
Ġadj
onia
Ġroute
Ġprominent
kins
ĠCap
plant
Ġbiggest
ita
Ġconven
Ġreceiving
Ġshot
Ġencourages
iated
Ġfeels
ĠItalian
Ġgraduate
Ġdepart
Ġenabling
conf
argument
Ġpassage
CL
ĠEastern
Ġwarn
Ġgram
example
rint
Ġcurious
Ġemotion
Ġrelation
Ġcontained
Ġargue
American
fish
Ġgradually
TH
hma
Ġexcessive
oven
Ġcorner
heast
sey
Ġthesis
Ġconstantly
ĠNorthern
ocabulary
Ġbarriers
Ġdream
Ġhydrogen
ĠAsian
ett
Ġengineers
initely
Ġnine
cho
Id
Ġmembr
Ã¶
Ġcrow
Ġunw
Figure
Ġliv
Ġentertain
ĠUt
ĠMad
Ġintegrated
Ġmerely
ĠSpain
outs
.âĢĻ
Introduction
Ġproviders
utch
Ġneur
sl
icago
ĠAND
tery
Time
Ġmoves
Ġdialogue
Ġhole
irty
Ġequivalent
Ġestimate
Ġpra
aph
Ġsustainability
Ġdoi
Ġfounded
Ġgreenhouse
âĢĻ,
Ġfeeding
bridge
Ġpresents
Ġinterpretation
Ġbiology
Ġanalys
Ġvote
Ġadvert
ĠJoseph
Ġprinting
usal
Ġaccommod
Ġimplemented
itan
Ġstatistics
Ġmusical
ediat
uality
bing
ĠMult
Ġsatisf
Ġtwenty
Ġamid
OC
Ed
fts
Ġevolved
istical
Ġcalculate
Ġseg
Ġagents
Ġhonor
fill
Ġdifferently
quality
Ġcorrectly
Ġeducators
ĠSign
Ġrecept
Ġartistic
Ġpossibilities
Ġmoisture
Ġexpertise
case
Ġabstract
Ġnerve
Ġrobust
DP
Ġcolonial
Ġgrad
Ġrising
Ġtreating
Ġmarried
chen
Ġshad
Ġsupposed
Ġthousand
itory
oving
medi
grad
Ġwhenever
earing
Ġintricate
mented
ilation
spe
Ġplenty
Ġended
everal
ontal
onents
Ġdivision
See
ĠSing
Ġmyself
awn
Ġinterventions
Ġmeasurements
inates
Ġconversations
Ġequally
Model
Ġcontamin
Ġmeasurement
Ġepid
Ġunusual
Ġspok
Ġinstances
Ġdifficulties
Ġtargets
Ġlegislation
################################
orses
Ġrelief
Ġcapabilities
ĠIreland
ĠRoyal
Ġcust
Ġdioxide
ikip
Ġsys
ĠPop
Ġcombat
Ġrequiring
ĠTitle
Ġbranch
bles
mes
Ġmm
Ġbringing
Ġpool
Ġphenomenon
Ġestimates
Ġowner
Ġoutcome
ushed
File
|'
Ġdebt
ĠMars
Ġped
Ġparallel
Ġoverwhel
ĠMax
Ġrivers
OP
ĠAdminist
irds
Ġobjectives
Ġmechanical
ĠCommittee
close
Ġeffectiveness
Ġassume
ĠBC
eers
utils
response
eras
ugh
ĠPan
Ġnic
Ġnob
ĠSpe
andon
find
neys
Ġcontrols
esis
Ġtissues
Ġdestroyed
Ġdiscussing
Ġille
ĠWhere
ĠLiter
Ġintegration
gers
antly
Ġod
ĠResp
ĠChange
Ġspecified
ĠFree
ceptions
Ġovercome
Ġsched
etch
Per
Ġpaint
Ġobesity
oir
Ġdiagnosed
Ġran
Ġacknowled
Ġcomprom
Ġstimul
var
Ġwww
Ġcats
lights
osion
Ġoutl
Add
Ġpassing
ĠImp
anta
Ġalgorithms
health
Ġminimize
Ġperforming
lik
Ġminerals
Ġbiod
Ġwel
Ġclients
Ġjoy
Ġrepair
Ġfairly
Ġmeth
Ġpup
Ġdisput
Ġnotable
Ġmovie
ĠCamp
Ġboy
batch
Ġfurn
Ġhistoric
Ġaward
itz
illa
Ġsolving
Ġcontributing
ĠPM
ĠModel
Ġbatch
Ġexplanation
Ġexplicit
ĠFollow
Ġfinished
Ġfrequent
Ġfarming
Ġflav
Ġcovers
yroid
Ġreput
Ġconvert
Ġhandling
ĠCancer
acles
teen
ritis
ĠStart
etics
ĠGard
Ġuniversities
itical
Ġrocks
Ġdevelopments
Ġdanger
Ġcustomer
ĠGeorg
Ġparser
Ġkne
Ġmyst
Ġdataset
Ġalgorithm
ĠBank
Ġtransc
Ġlights
Ġexperiencing
Ġcholesterol
)))
pop
Ġmur
Ġstrongly
Despite
ĠHistorical
ĠSchol
Ġships
iki
ĠScot
Man
âĢĺ
root
Ġstructural
Ġexception
Ġsimultaneously
BS
Ġtag
tic
een
Ġscan
Ġuniversal
aws
ĠAnalysis
ĠRichard
ĠCreate
Ġorgans
conc
Ġforming
Ġscores
ĠCa
Ġvideos
ikipedia
Ġspecialized
ĠCommunity
arks
ĠTimes
>>
Ġshed
[:,
Ġpharm
Ġneither
Ġnewly
ograp
Ġembed
Ġfest
Ġvictims
eries
capes
Ġvisitors
Ġsizes
Ġspin
save
Ġsport
Ġbath
Ġnervous
ĠRom
Ġcleaning
itals
car
axis
Ġrealm
Ġassociation
ĠWood
raining
ocy
Ġnu
Ġstores
Ġdys
ruption
Ġdamaged
ĠâĢ¢
Ġeastern
Ġrespectively
Ġencouraged
ĠBoard
Ġtrauma
Lear
itt
sequently
Ġrepresenting
ĠMa
Ġelectro
Ġtank
Ġsessions
Ġfu
ĠClimate
Ġvoltage
Ġcircle
Ġinfluences
Ġcontributed
Ġadds
Ġoutbre
Ġicon
ĠInit
rox
ĠScott
Ġfer
ervice
fn
IA
Ġ'''
Ġdefe
attr
Ġsharp
Ġpractition
ĠIns
Ġobserve
ĠFamily
Ġcorrel
Ġsmoke
onym
ola
Ġcomputing
Ġstatements
env
ĠGuide
Sub
Ð¸
ĠPenn
agram
opes
Ġlaunched
ĠGal
Ġresident
Last
Ġreaching
Ġpeoples
Ġbigger
Ġmining
Ġmyster
Ġbutton
Today
rier
ctive
Ġreson
Ġmolecular
ĠWorks
ostic
Ġrhyth
gov
Ġtack
]]
Ġequality
ĠAgricult
types
Ġpoetry
Ġattempts
Ġintense
ĠWill
,'
ĠEU
ä¸
ĠEc
Ġbanks
Ġblind
Ġextraord
gener
itual
Ġmice
peut
Ġcoastal
search
Ġintegr
Ġtransformation
ieval
Ġgent
Ġweapons
Ġmir
Ġisinstance
Ġflo
ĠHy
Ġpsychology
izers
Ġobservation
iences
amine
Ġpuzz
Ġsomewhat
ĠValley
Ġcontainer
Ġempower
Ġqualities
ĠMichael
Ġbranches
Ġcriminal
ĠThough
ressing
files
Ġregulation
Ġcarb
ĠSciences
olesc
ells
ĠMaybe
ĠBrown
Ġ},
ĠMethod
Ġfriendly
theless
Ġinn
ureau
Ġwatching
Ġshaped
connect
kl
Ġauton
Ġformula
property
Ġrom
Ġempty
Ġincorporate
Ġissued
Ġbonds
Ġarchae
Reg
ĠHappy
Ġfever
View
ql
Ġlinear
Ġfaces
Ġwebsites
abled
aining
number
Ġcarrying
aired
ĠOR
uke
ĠStat
ĠFind
Ġmoments
fast
ĠReal
acher
athered
Ġdefense
Ġdigest
bur
Ġstroke
ĠVer
."""
Ġagent
Ġproductivity
Ġentered
Ġrect
Ġsitting
Ġassigned
Ġphoto
ailable
Ġboys
%.
Ġmos
ĠNever
Ġessentially
igma
ĠAcademy
ali
ĠWord
Ġrank
ĠSpecial
ĠVictor
Ġvariations
Ġpoison
ĠIndust
Ġconstructed
HD
Ġpermission
airy
Ġinher
Ġcaptured
ani
ĠChicago
isp
Ġmarks
Ġcorresponding
Pre
Ġ),
Ġchances
Ġschedule
Ġdescript
Ġblow
Ġencouraging
unning
Ġabandon
Ġdestruction
Ġcaught
va
Ġstead
Ġupdated
sim
Ġviruses
Ġcompassion
Ġjudge
HT
ĠBrazil
eness
Ġmask
Ġliteracy
Ġdispl
Ġplus
Ġpeak
Ġprinted
arios
rowing
Text
ĠTry
Ġcompens
Ġwellbeing
Ġranging
ĠChristianity
ymph
Ġvolcan
Ġwidth
orate
Part
ults
oga
amination
abil
apse
SC
random
urrent
rary
Ġescape
acco
Ġactively
ï¼
Don
Ġrobot
ĠBab
token
Ġpersonality
Ġpit
asses
Ġenemy
Ġstrategic
Ġundert
ba
ĠBig
Ġversions
Ġcyber
rac
ĠSecurity
friend
Ġsurprising
Ġglucose
Sp
Ġmodified
erring
Ġefficiently
IF
ĠServices
ĠWelcome
Ġburning
Ġworkshe
Am
She
ĠLast
di
has
quit
Ġsunlight
ami
Ġarise
Ġinspect
Ġrab
ano
ĠYoung
Ġsla
column
Ġimplementing
ĠValue
stack
otton
ĠViet
Form
Ġecosystems
Ġrenewable
Ġpromise
Ġampl
Ġmeters
Ġhun
ki
ĠIII
reek
ĠWhether
amins
Ġawait
Ġpracticing
orted
ĠCarolina
})
Ġnarrative
Ġcav
Ġdates
Sim
utrition
Ġemphasis
Even
plete
RC
Ġtables
Ġapproved
Ġposit
Ġfemales
Ġmarketing
Ġpreferences
ocking
ĠSarah
Ġnose
Ġexplored
Ġcomposed
vance
Ġclassic
Ġtub
charge
ĠIran
core
ĠParty
Ġplanned
Ġsad
','
ĠOper
Ġgirl
estions
ĠFace
Ġdesert
dist
Ġweakness
ston
Ġkidney
sem
Ġdisaster
iar
esides
Ġautomatically
ĠSil
opath
Ġannounced
Ġmixture
ĠChristians
PE
ĠPlant
ading
Ġscientist
bug
Ġurl
Ġmortality
Ġassets
Ġbabies
Ġordinary
Ġexpressions
Ġimprovements
Ġpurs
Ġkeeps
Ġprecise
Ġdimensions
Ġslavery
Ġrender
Ġpoem
Ġindicated
Ġanalyzing
ĠTogether
Ġproven
Ġconsiderable
connected
Ġtube
tem
Ġmales
ensional
Ġfalls
azine
Ġlingu
ĠUlt
Ġparas
this
Ġring
utely
Inter
Ġattach
Ġbrush
Ġinspiration
Ġsigned
door
Trans
EST
Ġlegisl
ovascular
egin
Ġguard
Ġchannels
Ġinsulin
Ġprofile
Ġdb
wind
Ġavailability
Ġpanel
yal
Ġresid
elesc
Ġstrain
Ġproportion
Ġlaid
Ġtraits
otype
elfare
ady
Ġwonderful
ĠSat
lower
inson
Ġpin
Ġmemories
Ġcash
Ġproved
ĠFort
ude
Ġtons
Ġdeclared
Ġdispar
ĠProcess
ĠHoly
ĠBack
Ġmeasuring
Ġuniform
rypt
Ġcycl
Ġfinds
Ġorigins
ĠUnfortunately
Ġdisabilities
ĠDev
Ġwine
Ġextend
Ġtargeted
UM
iture
Ġvarieties
Ġrac
Ġcounsel
Ġheating
show
Ġsenior
Ġdependent
čĊĠĠĠĠĠĠĠĠĠĠĠĠĠĠĠ
Ġperception
Ġplane
Ġsatellite
Ġsensitivity
azon
)]
Ġepis
ourage
iah
------------
Ġpreparing
Ġenhancing
Ġpreserving
sen
Ġnorms
Aut
Ġattitudes
Ġidentification
you
Ġtact
lessly
Ġclub
Ġscenario
ĠPot
ĠNote
ĠOptional
Ġexhibit
Ġmold
Ġdefend
roat
edu
ĠNaz
Ġinterface
ĠIrish
Ġusual
Ġtension
ounce
Ġelection
Ġprovider
telling
Ġsafely
lock
onal
Ġequation
Ġmicrob
Ġcounty
project
Ġchest
night
Ġprivacy
Ġremoval
otypes
Ġquiet
ÑĤ
Ġcontribution
Ġscope
Ġdollars
Ġinhabit
Ġhusband
Ġpeer
Ġchoosing
ĠBob
Ġroads
Ġvel
ĠSystems
Ġhem
Ġinspire
Ġsampl
Ġrespiratory
link
Ġmetabol
Ġsensors
Ġvocabulary
Ġcelebrate
Ġwound
Ġconnecting
ĠKingdom
Ġouter
Ġtract
Ġintensity
Ġextraordinary
Ġexperimental
opol
ĠMel
ĠMen
Ġfacility
ĠStrateg
Ġaudio
Ġmarginal
ĠBuilding
Ġfaculty
Ġwindows
ĠPo
Ġecological
graph
ĠApplic
Ġritual
Ġprotective
Ġfinger
akistan
%)
Che
Ġdispos
EE
Ġdriven
Ġirrit
haust
brid
heric
ĠHand
Example
uid
Ġimaging
Ġturb
items
={
Ġwarning
Ġhorses
Ġgut
Ġfeat
Ġdecreased
Ġlie
Ġmaintained
Ġprospect
Ġcoverage
Ġminute
Ġopinions
emia
Ġstere
Ġvector
ĠLook
query
Ġessays
Ġabsolute
Ġgalax
Ġtheoretical
ĠIslamic
Ġspectrum
Ġmicrosc
Ġalive
Ġhonest
Ġdriver
ĠJohnson
ĠYear
Ġinteractive
Ġprohib
ĠImport
Ġcalculated
Ġhoney
ivered
ustain
Ġsoph
cf
Ġgiant
ĠZeal
Ġintrig
ĠLearn
Ġcoc
ĠBusiness
ipher
Ġcaptiv
Ġstrange
ĠAtlantic
IDS
Ġdietary
sg
Ġearthqu
rous
Ġadvances
Ġanywhere
Ġhur
Ġpounds
Ġdefect
emplate
ailing
Ġspir
ĠMartin
itamin
Ġbreeding
ĠAst
ohyd
Ġtranslation
Ġprocessed
Ġtempl
ĠSuper
hyd
iological
tr
Ġvarying
iox
ĠInteg
CP
Ġcooperation
oded
ideo
Ġofficers
ĠSafety
Ġsilver
ĊĠĠĠĠĠĠĠĠĠĠĠĠĠĠĠĠĠĠĠĠĠĠĠĠĠĠĠĠĠĠĠĠĠĠĠĠĠĠĠĠ
ĠHall
Ġabnormal
ĠGrand
ĠForest
Ġevil
Ġceremon
working
oric
Tra
Ġparagraph
Ġvan
ĠPlay
Ġencomp
itarian
igan
Ġrecover
uris
Ġreporting
Ġholes
Ġquery
DS
Ġrarely
Hist
ĠSecret
Ġflower
ĠOxford
Ġcomplications
Ġlosses
Ġmigration
Class
Ġtick
Ġprincipal
FA
Ġeliminate
Ġreverse
Ġcovering
Ġscenarios
Ġintest
igned
Ġhaven
Ġreasonable
Ġbias
Ġprofit
Ġ;
Ġsentences
Ġaccompan
Â·
Ġcopper
Ġcream
iber
nals
Ġtelevision
Ġroughly
ĠResources
ĠDou
Ġrecall
Ġtaxes
ernel
Ġabsence
Ġcentre
ĠEp
ync
ĠFund
prene
filter
Ġseemingly
Ġpackage
Ġcompound
Ġperceived
Ġdominant
Ġclaimed
Ġcommittee
ĠZealand
ĠEngineering
archy
Ġfault
Ġcommission
Ġhardware
feed
Ġflavor
ĠTom
Ġphysically
Ġembracing
alog
mentation
Ġtrace
peutic
Ġislands
Ġaccurately
ĠAlice
Ġorbit
Ġconsume
ĠBill
Ġcollections
Ġfunctioning
Ġpregnant
Ġmutual
Ġcoding
ĠSup
Every
Ġdil
eping
rance
Ġreflection
Ġsuscept
Ġradical
Ġcab
reprene
Ġbalanced
ĠConsequently
Ġven
Ġcrew
Ġvariation
Ġmemor
=(
ĠChristmas
including
Ġtip
osh
ĠNum
ĠNetwork
ĠLead
Ġfing
Ġminimal
chain
Ġdish
ĠHT
ĠIndians
Ġfourth
ĠOrig
Ġlogic
Ġembark
Ġconqu
Ġflows
aska
Ġconfirmed
miss
Ġedition
Ġlists
ĠAgency
Ġarrest
found
Ġharder
cyclop
Ġlock
ĠOnline
ECT
Ġheads
Ġrequests
Ġconsciousness
Ġov
uscript
Because
Ġdesigning
ocolate
Ġwheel
Ġinvestigate
Ġtow
Ġbreaking
Ġflexibility
Ġnodes
ga
Ġgrain
Ġsoul
Ġcham
Ġreferences
Ġinfo
Ġexamined
ĠMove
heimer
Ġquantum
igue
ĠHill
ĠSwed
Ġfo
rection
PL
Ġbatt
Ġwondered
ensed
Ġvertical
ulpt
ĠOrganization
ersion
Ġvibrant
Ġflexible
Ġduration
Ġopposed
Ġrational
Ġlake
ĠEqu
cut
Next
ĠLim
otherapy
ĠThree
rize
Ġherself
csv
ĠMer
emb
alities
Ġlighting
ĠFact
ĠAR
ĠNorm
Ġye
common
Ġparameter
Ġbrow
ruit
hema
ĠBal
Ġauthentic
Ġphrase
ĠHosp
Ġchlor
Ġmountains
Ġcontributes
reams
abeth
Ġgranted
Ġlibraries
Cons
Ġfishing
Ġscreening
Ġbag
ĠLittle
ĠContin
etary
Ġsurprise
ĠDen
anted
Ġsuperior
Ġacquired
ĠAuthor
Ġmanifest
covery
Ġrose
Ġspark
Ġhazard
Ġanticip
Ġcalling
icy
sex
Ġprobability
Ġcalories
Ġresearcher
Ġachieving
Ġcurve
Ġdetected
ĠCle
Ġdelivered
Ġworship
Ġpond
idation
Ġbene
Ġmineral
Ġgrows
Just
Ġtempor
Ġloop
ura
Ġsensor
ĠPlease
Ġclassical
Ġfra
Ġlandscapes
Ġexceed
Ġpeers
Ġdose
IO
Ġsaved
Ġnumer
uten
Ġsculpt
Ġtemple
Ġpreced
ĠPoint
Ġextension
Ġcompetitive
Ġpropag
Ġphenomena
olar
Ġmotivation
Ġsongs
.).
Ġglobe
ĠPolicy
Ġappeal
Ġdemocracy
Def
Ġinfant
Ġabsor
Ġunders
pie
Ġvisited
irms
ĠFigure
clusions
Ġease
ĠReading
Ġbiom
venile
Ġdiameter
Ġdishes
Ġisolated
peror
Ġclothes
eta
ĠPractice
ĠAdministration
ĠHeb
Ġcooling
ĠCross
Ġdetermining
uis
oston
amps
Ġtowns
čĊčĊĠĠĠ
Ġcopyright
Ġbeneath
Ġpassword
ĠAssess
through
Ġexpanded
Ġcas
Ġdetermination
raints
Ð½
Ġpandemic
Ġadvancements
ĠJul
oln
mask
Ġalternatives
acent
Ġsurge
Ġstations
ĠPakistan
left
Ġenhanced
Ġneural
Ġsuffered
Ġcompos
ĠConnect
Ġfrust
Ġtemporary
ogenic
ptic
Table
Ġgast
roud
ĠLow
Ġchemistry
power
perm
unct
xy
Ġcontexts
ĠAngel
Ġversus
Ġmanager
Ġhabitats
ĊĊĠ
Ġraising
ĠWindows
oons
Ġdisability
Ġbreed
ĠMoon
rin
adder
ĠWithout
anger
aped
Ġlosing
Ġaest
Ġgrains
Ġstakeholders
ĠDistrict
aved
Ġblank
Ġordered
clude
ĠObs
Ġelsewhere
Ġkeys
Ġelder
'))
Ġgathered
Ġwheat
fix
Ġunity
Ġvisiting
Ġles
math
ĠDown
Ġhier
Ġsubmit
product
iana
OW
Ġluck
Ġhappiness
kind
Ġdrag
Ġadolesc
quir
advant
Ġearliest
Ġhence
Ġaddressed
Ġhormone
Ġexcited
Ġtribes
riz
ĠCrit
ĠFour
creen
Ġsuddenly
ĠRoad
Ġcontrolling
mail
Ġexhaust
ĠID
Note
icular
onent
rolled
Ġtelling
Ġaged
Ġconj
Ġcolumns
ĠSpirit
Ġacute
Ġedges
Ġdirections
Ġasc
Ġtropical
oured
Ġcountless
Ġparad
Ġsaving
Ġvoices
Ġacting
ĠMath
Ġmine
ema
Ġhunting
Ġseat
Ġterror
ricts
ĠPath
Ġbuff
ĠSir
Ġbomb
Co
oids
Ġmanual
Ġviewed
Ġsatisfact
Ġunion
NS
ĠHarv
Ġdisag
ĠCast
ĠLog
CA
rh
ĠArticle
Ġdecay
aration
mal
Ġstopped
ĠRock
TER
only
ĠCentre
books
vi
Ġoccurring
Ġchose
ATION
Ġfed
cult
Ġintegrity
Ġstones
ĠWall
Ġcandidate
ĠTop
Ġcombine
ĠVen
ĠJac
Ġpreferred
anned
Î±
asant
msg
context
Ġthermal
Ġscr
Ġnitrogen
ega
Ġpestic
ometric
ĠHor
Ġlegacy
ui
pdf
iability
izabeth
Ġgently
Ġcluster
Ġachievement
ĠLight
Ġstreets
Ġmagic
pi
exist
Ġfarms
Ã¤
Ġphosph
Ġshoot
Inf
Ġfalling
Ġremoving
Ġtales
Ġtight
Ġequipped
mond
non
Ġspatial
Ġamidst
Ġgrades
Ġbacterial
Ġattributes
ĠProp
Ġinvolvement
Ġhighlights
Ne
Ġvig
Ġquantity
Ġgenu
ĠCase
txt
Ġdefinitely
ĠCE
Ġasthma
century
cipe
Ġevening
Ġillegal
QL
best
Ġpaying
likely
ĠMach
Ġduty
char
ĠPass
fields
Ġwearing
Ġvitamins
Ġsuit
Ġdirected
Ġcort
Ġelected
regation
Ġcalm
Ġdiscipline
Ġpointed
ioxid
Ġseparated
Ġnutrient
Ġmagical
duate
Ġplain
zheimer
ATE
angered
Ġauto
omer
Welcome
imm
iments
CR
inition
ĠUr
ĠTable
acies
irth
Ġdiffer
Ġwrites
ĠKorea
ĠReturns
Ġtrigger
ctors
Ġdivine
Ġmistakes
Ġbreaks
ĠCoast
Ġpd
raq
una
Ġownership
Ġspan
Ġmanufacturers
after
pload
Ġorders
Ġphilosoph
SI
Ġphysician
ĠDigital
ĠDar
ĠMD
People
ĠSund
ependent
Ġlaser
ĠColumbia
ĠAvoid
Ġdictionary
build
Ġsolely
Ġshock
ĠWay
Ġcourts
Ġresponsibilities
ocity
ĠPet
Ġsegment
Ġflying
HA
Ġplanting
Ġconcentrations
incoln
oder
Ġfatty
Out
Ġnom
predict
Ġlogger
Ġpaths
vals
Ġ?
Ġsacred
bel
command
Ġfats
ĠImm
Ġgentle
Ġlip
ĠDom
eting
Ġsecre
Ġgases
Ġdoors
ĠCir
unicip
ĠFire
Ġperpet
ivation
ĠCode
Ġargued
Ġhealthier
Ġinclusive
Ġalert
ĠGr
arters
Ġtoys
Ġneutral
ÑĢ
Ġperfectly
Ġdrought
Ġaddiction
layer
Ġpairs
duction
isely
ĠSupreme
Ġdramatic
ĠConservation
urolog
Ġdegrad
Ġspecim
block
oys
Ġclock
Ġchair
ĠMaster
ila
Ġmetals
zone
[-
ĊĠĠĠĠĠĠĠĠĊĠĠĠĠĠĠĠ
Ġfinish
Ġcattle
Ġbiodiversity
Ġroyal
specific
tag
Ġmic
ĠAL
Sm
Ġincident
Ġmg
achers
made
$$
Ġobstacles
Ġpanels
Are
Ġdipl
Ġanalyses
ĠIss
Ġslaves
Ġchap
Ġfought
ricted
alm
"],
ĊĠĠĠĠĠĠĠĠĠĠĠĠĠĠĠĠĠĠĠĠĠĠĠĠĠĠĠĠĠĠĠĠĠĠĠĠĠĠĠĠĠĠĠĠĠĠĠĠ
oul
Source
Ġtough
bits
ĠYes
Ġcharacteristic
OM
Ġrecognizing
exec
Ġspoken
Ġcardiovascular
labels
Ġtone
Ġnice
Ġsubt
Ġton
ĠPrevention
Ġenorm
Ġplanets
Ġentering
Ġmock
vania
ESS
ĠHeart
Ġworst
ĠPen
ĠFacebook
Ġslave
issance
Ġpla
Ġimagination
ĠFil
aret
Ġmanuscript
ĠInvest
ptom
Ġpractitioners
friendly
Ġadvers
Ġspots
Ġcandidates
erge
Image
fs
Ġbehavioral
Ġestablishing
ĠFuture
ĠProg
ĠIndeed
ĠCr
Ġclar
erman
bean
Ġgraphic
Ġmoderate
ĠProtection
Ġpriority
Ġexpanding
Ġnotion
Ġhurt
Ġstaying
Ġaudiences
Ġatoms
Ġcontents
aware
ĠScotland
Eng
Ġconcluded
enter
Ġcharged
Ġclust
ĠChall
green
syl
endar
Ġcombining
Rep
havior
ropri
Ġpion
direct
ivate
ĠLee
Ġadapted
à¥
elta
Ġavoiding
Ġom
Throughout
ĠMah
Ġidentities
bas
Ġstood
Ġexport
Ġintention
ĠDutch
plt
opher
EX
Ret
Ġoldest
Ġtransmit
Ġexped
Ġpredicted
Also
iva
Ġwat
enger
Ġsettlement
Pub
arness
ugg
Ġpopularity
Ġtob
Ġparams
oster
ĠEmb
Ċĉĉĉ
ysical
HS
Ġdrivers
Ġcustoms
Ġtong
ĠIde
Ġevident
Ġlungs
ĠSupport
Ġcommunications
Ġgravity
ĠHebrew
Ġbees
Ġwise
Ġgest
inv
fol
iblical
lat
erty
Ġlecture
Ġwelfare
********
Py
mode
Ġpatience
ĠPalest
ounder
etts
ĠPlace
Ġenterpr
zym
Ġwider
Ġaccomplish
ĠText
ĠBooks
Ġinitiative
ouds
Ñģ
ĠEffect
Ġflash
Ġrestaur
arding
Using
Ġregarded
May
ĠMS
Ġoccas
Ġgif
Art
Ġowned
ĠAlzheimer
Ġengines
Ġcotton
swe
Ġgrab
ĠBoston
Ġquarter
Ġlasting
Ġsteam
Ġreflects
ansas
ĠMinister
Ġmeditation
Ġregulatory
Ġstruggles
Ġpromising
Ġfilms
asures
ĠHead
jud
ĠBeing
Ġrestrictions
Ġselling
ilipp
Ġdelicious
ĠBattle
Ġcontinuing
Ġstrike
ĠJustice
izz
ceive
Ġtumor
roups
ĠUnlike
Ġhospitals
ĠAsk
Ġreveals
Ġphotographs
bot
EF
plex
Ġestablishment
ĠPur
Ġmeetings
Ġconsistently
Ġillustrate
apped
Cre
urches
Ġmouse
Ġbuying
ĠEdward
Ġaging
Google
ĠOften
Ġcrypt
Ġanalog
Ġspl
Object
worth
Ġantibiotics
`.
sign
Ġfemin
Ġattitude
Ġtric
ĠLy
Ġfur
pub
ĠLG
access
Ġrelie
drop
isticated
wan
Ġreviews
ĠSand
ĠCall
agnetic
Ġdevast
Ġirrig
Ġadverse
Ġtom
Ġshares
Ġtobacco
pay
aterials
Comm
RL
Ġjuris
ĠJeff
Ġillnesses
ĠWriting
Ge
Ġpolar
ĠAgain
Ġsciences
ometers
~~
ĠKen
Ġconsumed
taining
ĠCat
ishop
blem
berry
Ġathletes
Ġmothers
egu
Ġnovels
ĠNov
ĠSelf
Ġjudgment
ima
achus
Ġdistances
Ġcelebrated
igious
Ġbatteries
ĠIraq
Ġbelieves
Ġhall
ĠWrite
Ġexecutive
Ass
Ġtherapeutic
Ġthreatened
Ġunlikely
Ġ["
Ġtracking
Ġvaccines
rink
Ġapps
ĠNext
Ġweigh
Ġacceptance
istant
ercury
::
Ġadaptation
arming
ĠIV
Ġcarbohyd
Ġconversion
Ġcord
ethe
Ġentreprene
Ġwars
Ġtransformed
Ġfuels
ĠExp
ĠBul
Ġdirectory
Writ
ĠTO
hire
dataset
Ġprime
ĠImpro
Ġassignment
ĠEmer
PD
Ġexisted
ĠCambridge
Ġsupplements
Ġcond
Ġscenes
supp
Ġconfusion
Ġeverywhere
ĠLin
unit
ĠCard
ĠQueen
Ġlifetime
Ġdiscoveries
Ġpose
Ġmembrane
rt
Ġprivile
ĠSurvey
Where
Ġinputs
uate
ĠPerhaps
Ġprogramme
Ġenum
Ġentities
Ġ{"
itting
sylvania
event
Ġfatigue
Ġhygi
Lesson
Ġacres
Ġthrive
device
Ġreinfor
Ġinfluential
Ġjournals
Ġconsent
ĠHospital
Ġstatistical
Ġpayment
parts
Ġthreshold
ĠShould
Ġcritically
ashes
Ġpromotes
Ġcodes
Ġeru
style
Ġapplicable
Ġchicken
Ġstorytelling
Ã¢
Ġsending
)),
Ġessence
ĠEconomic
</
ĠForce
Ġlogical
KE
Ġassembly
Net
necess
Ġtoken
cule
Ġcompliance
ĠIT
oice
About
replace
Ġparticipating
Ġdemonstrates
isition
fting
tx
Ġprecision
Ġaccompanied
clos
Ġgover
Log
Rel
ĠBu
ĠLincoln
Path
Ġaddresses
usalem
Ġcomprehension
Ġconverted
Ġmedieval
Ġenthusi
local
ĠFather
Ġunlike
copy
ĠHindu
Ġforecast
Ġdating
ĠTheory
neg
eling
ĠEconom
ĠElizabeth
Ġcycles
Ġcourage
Ġhouseholds
Ġburied
Ġjoints
Ġdeficiency
Ġreconst
ERS
Ġexch
Ġarmed
ĠLevel
grid
Ġlegend
yer
oa
Ġchocolate
ĠLi
Ġmosquit
Ġcure
John
Ġregister
Ġcollecting
ĠDirector
Ġharmony
Ġcompost
foot
uther
system
Ġrestore
Remember
Ġdairy
ĊĠĠĠĠĠĠĠĠĠĠĠĠĠĠĠĠĠĠĠĠĠĠĠĠĠĠĠĠĠĠĠ
ĠNOT
Ġconfiguration
erator
ĠOhio
aze
Ġsettled
Ġcv
Ġrequirement
Ġpowder
Ġhypothesis
Ġdebates
Pr
Ġjuice
Ġvegetation
Ġpressing
aints
Ġpublications
total
Ġbeat
Ġdrinks
Ġconserv
ediatric
oli
psy
eval
ĠField
Ġopposition
ĠRh
Ġproud
Ġinequality
ĠDid
ois
mann
Ġexplaining
Child
Ġisolation
Ġtomat
Ġreaches
Ġsophisticated
Ġgods
vari
Ġrelate
Ġbless
Ġpositively
Ġlymph
Ġkilling
Ġboat
Ġantioxid
Ġhormones
Ġdisplayed
ĠLine
Ġethics
Ġwal
Ġreputation
Ġcorporate
elve
Ġprayer
Ġexcite
erb
ĠMichigan
ivities
)|
Ġestate
Char
Ġincent
ĠDivision
Ġworkplace
Ġcoron
Value
Ġprecious
Ġenjoyed
estock
agen
Ġlicense
ĠVe
Ġwithdraw
Ġvaried
Ġspoke
Ġequations
ĠHawai
itate
ĠWal
Ġresc
ĠMusic
Ġspray
Ġrevol
Ġwra
Ġclassification
also
asm
Ġutilize
cat
grade
Ġconsiderations
Ġsuggesting
eem
Ġofficer
Ġaside
ĠMind
Ġpubl
Ġpill
stop
Ġsavings
Ġgardens
Ġautism
hemistry
Use
urable
eller
Ġworker
Ġyes
chnology
Ġreflected
mem
adel
Ġcomplement
obile
%,
ĠGeorgia
IST
MD
Ġforever
Ġthorough
score
uan
Ġportray
inator
Ġquantities
thritis
anean
Count
Ġclay
Ġclassified
Ġdeploy
ĠPhot
Ġassumed
ĠScholar
XX
azz
Ġzones
Ġlon
uv
ĠAff
`,
Ġaccordingly
Ġspreading
endment
matrix
Ġpaintings
Ġinterior
Ġposts
Ġanger
Ġfitness
PT
Ġoutdoor
Ġcurrency
Ġsuggestions
Wid
Ġassumptions
Ġapplies
Ġsevent
Ġgoverning
natural
Ġrecycling
Ġimmigrants
ĠAmazon
gr
Ġancestors
efficient
operative
achusetts
regular
ackson
Ġstrengths
Ġviolent
Ġdisadvant
Ġtexture
Ġorientation
parser
ĠObject
Ġemerge
Ġherb
ifice
Ġcub
gebra
diff
iders
ĠYO
Ġeconomics
ceans
ĠArctic
Ġaccounting
store
stars
Ġham
Ġlikelihood
ogs
Ġcolonies
Ġborrow
lymp
Ġshorter
.")
ulumi
Ġmini
Ġprosper
borne
ĠStar
Ġkitchen
Ġpets
'):
Ġignore
Ġlowest
Ġcrown
Ġpartial
Ġconvin
Ġinhabitants
Back
Ġoverview
ĠPortug
ĠCarl
ĠHelp
ĠIncre
backs
Ġtailored
commun
depth
Ġschedul
Ġol
Ġneurons
stein
uits
ĠJerusalem
hend
Ġnutritional
ĠPennsylvania
Ġgenome
Ġdistant
Ġenforcement
ĠPlus
even
Ġfires
Ġorth
Ġholiday
pu
Ġseriously
FT
Ġgrounds
ĠStandard
ĠâĨ
EG
Ġmature
ĠSmall
uting
Ġaggressive
Ġrevenue
ols
Ġappointed
amma
Ġpace
Ġlegit
pin
Ġcow
iger
erally
ĠDC
Ġrepeat
ĠSection
chron
Ġfeaturing
Ġsubtle
Ġbare
Ġemployee
Frame
Ġhat
Ġpersonnel
Ġvictory
ĠCub
ĠCost
Ġbeans
Ġbrid
high
Ġrecre
Ġpersu
ĠTestament
ĠImage
afe
Ġutility
asma
Ġbrains
Ġthank
Ġindirect
Ġprey
Ġillum
itches
Ġharvest
Ġbasically
Ġstriking
Ġscheme
Ġurine
Ġdevelopers
Ġcancers
Dis
Ġcalc
enza
Ġfinance
Ġsurrounded
Ġloyal
'].
Ð¾Ð
debug
func
Ġears
ĠRight
ĠAction
Ġsequences
fire
Ke
oz
Ġanthrop
div
ĠIslands
Ġrecording
Ġcopies
Ġdatetime
Ġselecting
Config
Ġintegral
VI
ker
State
Ġhomework
Ġmovies
Ġviral
Ġstack
sample
ORD
Ġprecisely
Ġstruggling
Ġcaptivating
Ġnull
oler
Ġborders
Ġmedicines
ĠRam
Then
ĠGreece
Ġcirculation
ĠMuslims
ĠWithin
Ġdesignated
Ġpainful
Ġfr
Ġbin
Ġreplacement
Ġdraft
irable
vin
ĠColorado
rowth
Ġkingdom
Ġrows
eor
ĠHim
ĠpH
Ġnewspaper
Ġtor
Ġmanagers
ĠBlue
ĠCapt
Ġevolving
ologically
Ġsummar
dec
TI
Ġdisagree
Ġdefinitions
igm
mentia
ĠMedia
Ġdreams
Ġacceptable
ĠConfed
atile
Ġcoat
description
Base
ĠEvent
uns
Ġcriticism
Ġidentical
ĠHum
clear
flamm
Ġteachings
Ġimpair
ĠThanks
Ġwooden
sters
Ġion
Ġworlds
!!
hops
about
ĠBased
ĠArts
session
Ġlob
Ġenormous
Ġvegetable
Ġpenal
Ġsomewhere
Ġcher
Ġimportantly
ĠDO
ws
ĠFar
Ġrelevance
agan
orrect
apor
Ġreasoning
ket
ais
Ġtends
original
Ġ``
ĠCON
Ġultimate
Ġpredictions
ĠStory
Ġsectors
Ġsau
hal
security
ateral
Ġseparation
Ġdescribing
ĠMexican
Ġsurgical
Ġgaps
ĠHarvard
Ġfan
tains
Ġrestoration
uce
objects
BM
enti
Ġbol
atching
Ġsafer
Ġassociate
Ġtab
ĠWis
Ġnuts
static
ĠPage
Ġbasics
Ġthoroughly
Ġbackgrounds
Ġboxes
Ġscales
ructive
ĠParliament
ĠEr
bell
fare
Ġcha
iler
rained
ĠMeanwhile
Ġgate
Ġtang
Ġque
visor
Ġcaps
Ġcollaborative
Ġnest
Ġceleb
ĠDrug
Ġgathering
Ġbegun
Ġsale
Ġnavigating
TO
Please
ĠName
Ġshifts
ĠAncient
cyclopedia
wa
Ġranges
server
ĠParent
Ġvaries
Ġsubsc
opl
icul
ĠProm
illance
Ġconstraints
Ġdistinguish
ĠMassachusetts
ĠCP
SL
Ġsodium
Ġfingers
person
ĠPu
Ġ<=
!)
Ġindependently
Ġevolutionary
ĠOthers
FF
Ġvirtually
']['
Ġtelesc
oca
Ã±
Ġtale
Ġfantastic
Ġpreservation
aded
Input
Ġlayout
Ġsuspect
Ġmodeling
ĠVietnam
Ġimg
Ġhal
bris
ĠPain
Ġscar
Ġbusy
send
Ġproductive
ati
Ġstreams
Ġreproductive
Ġassessments
Ġfraction
Ġcommands
ĠPrint
hea
mental
ĠSoft
(-
Ġsister
Ġdies
Ġorange
Ġseam
aver
address
Ġdistricts
imp
eren
Ġminority
ĠTH
ĠView
occ
ĠCulture
ĠÂ£
Ġtwist
Ġfunded
Fl
Ġreserved
ĠJack
Ġtrading
ĠRecent
Ġgenre
dimensional
Ġprevalence
idal
Ġbarrier
iances
*-
Ġdress
ĠPhysical
Ġgift
ĠPhilipp
Ġtrem
Ġpermit
Ġinfants
ĠHaving
Check
Spec
agg
à¸
Ġdesigners
ortion
Ġembrace
ector
Ġmystery
Ġtemplate
)):
profit
raine
Ġcompat
ountered
Ġexecution
oname
Ġgrace
enny
Ġdemocratic
ĠMot
ĠRest
Ġconclusions
Ġfactory
neum
role
ĠTrust
Ġtransmitted
aneous
Ġsafegu
Ġwash
Ġgrasp
outheast
Each
bow
ĠStan
ooked
Ġproposal
Ġinclusion
Ġpartnership
ĠUV
Ġtemp
Ġoccasionally
Ġtraveling
ĠOlymp
Ġrepresentative
sembly
Ġinvestments
cin
Ġreflecting
Ġbuck
rav
eful
ori
delete
Ġdivide
ciplinary
Ġcompelling
Ġoils
aka
Ġrepet
orical
Ġencountered
Ġcheap
Ġburden
Two
ĠGuid
Ġfisher
Ġcomparing
email
Ġreadily
ĠCultural
ĠGulf
Ġfilters
Ġharsh
Ġprecip
Ġunnecess
Ġrooms
pow
Ġamongst
Post
ĠLGBT
Ġtape
Ġparks
Ġvessel
engths
ĠWhich
Ġcontainers
reponame
ĠEnt
Ġdropped
Ġcrimes
tw
ĠFred
bu
ĠClick
Ġdimin
ĠDoc
Ġgovernance
Ġweights
Ġadoption
ji
ĠSqu
Like
paren
Ġchromos
iations
phones
Ġpushing
ĠTreatment
Ġrh
ãĤ
Ġdtype
Ġshore
Ġregistered
Ġdense
Ġbelonging
Ġtolerance
Ġpel
lishing
ĠNavy
zymes
Ġimpressive
forward
Ġentity
Ġregulate
Ġacknowledge
yes
ĠNob
auth
ĠDifferent
GS
Ġanalyzed
Ġsees
ĠImpact
Understanding
Ġprovince
ĠSeveral
ĠMid
Ġheaven
Ġdestination
Ġcheese
Ġdigestive
rium
ĠCH
").
formed
Ġpix
isons
pled
ĠUk
Ġharness
Ġdissol
zyme
Ġexcitement
iterr
ĠExploring
PO
Requ
Ġhybrid
service
Ġinnovations
ĠConference
Ġuncertainty
Ġdiagnostic
png
Ġmapping
ĠBang
Ġsoils
Ġcough
Ġannually
Ġrent
ĠChoose
ĠVan
Ġoptical
Ġvisits
Ġsug
igration
fall
ĊĊĠĠĠĠĠĠĠĠĠĠĠĠĠĠĠ
Ġsovere
ĠAgriculture
Fig
ĠFrancisco
oning
Ġaccord
Ġpasses
Ġgly
Ġmsg
true
Ġtransf
ĠCS
ĠAlexander
science
Ġsensory
conscious
ĠUltimately
Ġserial
ĠTraining
Ġsampling
ategory
Ġoutbreak
Ġplacing
ouses
Gl
sur
gets
Ġindicating
ĠComputer
illion
results
std
String
Ġfreely
erness
Ġseverity
Ġprovision
Ġoffset
shaped
Ġpersistent
Ġsulf
Ġ..
Ġcater
ĠCorn
ĠCopyright
Ġprolong
ĠVi
]))
Ġdjango
esium
Ġende
Ġpursue
Ġscal
Ġparticle
Ġartif
Ġlabour
ĠPrim
Ġresistant
Any
graduate
ustainable
game
ĠTown
Ġroutes
iral
dated
ĠIndones
Ġtransactions
ĠSunday
Ġgum
ĠMA
Ġinvention
Â®
irs
Ġcentered
Ġadvisor
Ġsubmitted
Ġbool
Ġdiets
Yes
Ġcrack
DR
Ġeager
tf
Ġgenerating
Ġsmell
Ġspeakers
dig
iterranean
Ġpod
ĠProduct
Ġintegrating
ĠRequ
osity
prot
selected
Ġabsolutely
Ġrevers
(_
Ġoccupied
Ġgrammar
Ġrespective
Ġregime
Ġreign
akespe
ĠLew
Ps
Ġpadd
Ġelectrons
Ġbub
Ġhydro
Ġnn
Point
Ġopens
Ġcolorful
Ġresolve
Who
Ġsurviv
Ġdisciplines
Ġentit
Ac
Ġbat
Ġshoes
parency
Ġspacecraft
Conn
ught
ĠRegular
Ġcited
Î¿
Ġspinal
was
Ġmenu
mult
ĠMicrosoft
Att
Ġunderground
orest
Resp
Ġdisk
ĠDictionary
ĠDue
ĠDraw
Ġmorph
iously
pg
Ġshouldn
Ġbears
raham
Ġprescribed
Ġpurchased
Ġdistract
Ġexpenses
ologic
Ġtransplant
Ġmerch
oked
ĠNumber
ĠJackson
Ġdelicate
ĠWildlife
human
Ġsearching
Ġchurches
assium
CM
ĠAnaly
Ġdevelops
ĠHeritage
ĠLaboratory
Ġphotography
Ġphones
Ġskilled
conv
Ġattending
Ġcivilization
storm
Ġdisplays
Ġlivestock
Ġash
lambda
Ġplanted
ART
Ġterritories
ĪĴ
Ġneighbors
Ġdimension
Ġapparently
tim
Ġcig
ĠPDF
Ġboundary
Ġloud
omous
Ġobserving
Expl
Ġvolunteers
Ġpilot
rait
Ġdelight
Ġinvestors
ĠHa
acle
Ġtongue
ĠTurn
Ġnurt
Ġliterally
ĠGall
Ġwelcome
ĠMur
Ġinev
phabet
Ġcuts
Ġlinguistic
atoes
aya
achel
ĠLos
Ġhygiene
Ġbite
Ġduties
Ġlean
Ġcolony
uum
Ġmagnitude
Ġembry
Ġinstallation
Ġoverwhelming
ĠException
Ġreligions
ĠShare
Ġhorizontal
ĠBetween
Ġswimming
home
Ġclouds
Ġresemb
Ġplug
ĠLocal
inois
Ġattractive
Ġpupils
Ġgear
Ġshelter
Ġmunicip
Ġglac
module
ications
Ġdebris
reated
Ġtort
Ġdeals
settings
({
Ġinch
Ġdistinctive
inery
Ġembedded
Ġsystematic
ĠCentury
Ġbags
ĠMrs
Ġtech
aternal
Ġbeach
contin
Ġsynthetic
ĠWikipedia
Ġdocumented
ĠSolar
Ġjuvenile
Ġsheets
rible
Ġpreserved
awa
akespeare
Ġaccidents
ctu
task
pson
erver
ĠColon
Ġpenet
Ġincorporated
Ġsymb
Cal
Ġcellular
ogens
Ġconducting
igation
bound
Ġmetabolism
Ġdeer
ĠSelect
ĠNeg
plicate
Ġretain
ĠSaint
ĠEll
Ġprevents
ĠEnter
!âĢĿ
Ġdevelopmental
Ġequity
Ġbroke
Ġbottle
Ġfet
Ġsel
Well
Ġteaches
Ġinvasive
ĠDiscuss
Ġthroat
Ġintr
----------
Ġhighlighting
Ġengineer
Ġmultip
Ġthyroid
Ġputs
Ġguarantee
bt
ĠSon
Ġ-*-
)||
Ġconsuming
location
ĠKenn
ĠTemple
ĠDaniel
,-
ĠOtt
Ġrotation
Ġmammals
vas
ĠAndrew
Ġhazards
ilst
ometer
Ġlakes
imum
bul
Case
bour
oan
Ø§
SW
Ġrib
Ġending
Em
comput
Ġoperational
Ġsatisfaction
ðŁ
ĠBiology
Ġreef
Ġenrich
ĠNevertheless
ĠClean
Ġrough
ĠBureau
ĠPut
Ġdocumentation
Ġrecipes
ja
Ġaltered
front
Ġverte
Ġspecialist
iner
pany
Ġspeaker
Ġruled
BA
ĠMediterranean
CON
zeros
Ġelderly
Ġsusceptible
wall
orters
enders
entry
ĠWilliams
Ġattribute
Rec
Ġincidence
Ġsuicide
Ġtackle
resource
Ġdiscomfort
Ġinterconnected
ĠAltern
Ġwings
Ġsoy
Ġresidential
Ġstruck
Ġbullying
rub
Ġplates
Ġdramatically
adelph
Ġcitizen
Ġcampaigns
Ġpunishment
onday
Ġattributed
ilitation
ĠPrinc
engers
Ġspeeds
Ġacquire
Ġutilized
ĠBuddh
Ġvelocity
Ġabsorption
ĠMinistry
Ġtransferred
Ġtotally
Ġwing
ineteenth
ourag
Ġsurroundings
stud
Ġsymptom
estone
Ġcircul
ĠGiven
Ġ>=
ternoon
pert
Ġhistorians
Ġinspiring
ĠLater
Ġcosm
TR
ĠCreek
Ġbought
Ġarrival
Ġthrow
Ġreturning
bury
Ġsleeping
ĠKids
Ġcontinent
pa
sv
Ġok
Ġgolden
vy
ĠApple
ĠAppro
Date
arium
formance
Ġrestricted
ĠKorean
Ġdesk
Ġloose
Ġvillages
src
ĠNO
Ġ''
Ġsediment
Ġneurolog
Ġoutline
Ġobj
ika
Ġsurveys
Ġknee
Ġintersection
Ġconsequence
Ġdried
ĠOS
ushing
Ġpredom
han
Ġtill
Ġtranslated
Ġdiving
Ġstabil
ĠHop
urse
Ġsimulation
Ġmobility
ela
Ġlocally
Ġelections
Ġbleeding
Ġ>>>
Ġunem
ĠUnivers
Ġeleph
Ġtherapies
ĠVitamin
ependence
ĠConvention
Ġgeographical
tics
Ġoceans
Ġelevated
Ġenabled
Ġcertific
Ġelab
ĠChief
ĠFocus
ĠLat
Ġcolored
regon
xx
ĠEs
Ġworkshops
iliation
Ġcontrad
ĠAM
Ġoste
Ġtoy
Ġrainf
ĠDie
Ġaffairs
astics
Ġherbs
mates
ĠPay
Ġabundant
Hand
ĠRNA
ĠHence
irical
western
otional
Ġimmigration
GE
thur
Ġaffordable
Ġsetup
terior
ĠSus
uity
Ġrefused
Ġendangered
Ġloan
Ġcounts
ocate
Ġgenuine
Ġrays
Ġimproves
âĸ
thood
Ġproducers
cluded
ĠTurkey
ĠCR
Ġgray
options
ador
Ġovers
ĠCorpor
DL
Ġprogressive
ĠColl
Ġster
Ġempire
ĠEPA
Lab
adelphia
ĠBol
ĠPaper
strip
Ġupdates
ivals
Ġride
uct
ĠAud
Ġirrigation
nds
ĠCell
uda
Ġbits
olph
Ġnursing
ĠSecretary
Ġhack
pm
Ġtourism
Ġcable
Ġcarries
Ġpathways
site
ĠValueError
Ġintriguing
Ġadministrative
elly
Ġdescend
orship
Ġcann
ĠRather
Ġconsisting
olds
Ġracism
asets
ĠPL
Os
Ġarthritis
Ġactors
Ġinterviews
ĠJam
ĠThroughout
uction
full
Ġflavors
ĠTurk
Ġabundance
Ġhopes
del
Ġexplicitly
Ġachievements
Ġdefining
ĠAlways
inance
anz
Ġmistake
quiry
Ġft
Ġcontamination
Activity
worm
Ġbinary
develop
rying
Ġradi
Ġdistinction
odox
redit
Ġteens
Health
Ġincredibly
ĠWales
Ġinfectious
Ĥ¬
ãĥ
Follow
Ġgro
ynt
Ġrobots
ometimes
ropriate
izational
Ġsheep
ghan
ĠScientists
Ġemphasize
ffe
Ġwinds
Fe
Ġcultivate
Ġbinding
Start
Ġdrives
issipp
Ġattempted
"))
ĠUser
inals
Ġretail
Ġunnecessary
User
Ġhob
Ġerosion
Ġpython
har
ĠAS
ĠArea
ĠAT
Ġkg
Ġfilling
Ġdementia
Ġdiarr
Ġtrick
Ġchecks
Ġstew
Ġadolescents
enda
Ġdiplom
Ġcircles
Ġinvasion
Ġtyping
Ġseasonal
Ġstems
ĠMic
Ġphilosophical
ĠSenate
raid
Ġpipe
Ġentertainment
MI
ĠMoses
Ġfilename
ĠAntar
Ġjew
Ġchecking
Ġhide
ogram
Ġallergies
Ġsettlers
.),
eted
Ġbron
Ġevaluating
bec
cr
.:
Ġdiver
Ġassistant
Ġsemi
Ġapproval
ĠEval
Ġbrowser
Ġgre
arious
Ã¨
ĊĠĠ
hematic
Ġadvocate
Ġamino
ĠDam
ĠSP
ĠMajor
itic
Ġalpha
Ġfunctionality
cls
Based
'''
breaking
Ġimagery
Ġhes
Ġliberal
Ġrealistic
oop
Lay
Ġenzymes
Ġfacial
Ġcomplexities
aven
Ġundergo
iano
ĠBrain
Ġ(âĢľ
elect
Ġprotocols
Ġemit
ospel
ĠOcc
ancial
Ġcomprehend
Ġseeks
iop
Ġalumin
Ġcalculations
stic
Ġactivation
ello
Box
orient
Ġbeam
ĠRail
Ġholy
Ġrainfall
Ġbrilli
ocated
Ġtrail
Ġdemonstrating
Ġcharges
ĠCA
Ġrigorous
plotlib
attered
Ġrejected
Ġheal
ĠEgyptian
Ġlunch
Ġorganize
ĠIllinois
Ġcloth
patch
some
answer
Ġdistribut
Ġnam
Ġtumors
ĠNutrition
essional
Ġexcav
Dep
Ġtast
ĠOl
âĶ
avirus
ĊĠĠĠĠĠĠĠĠĠĠ
Ġpiv
logger
Ġdiagram
bage
ĠPhilos
World
mers
river
Ġabandoned
Ġimperial
nia
Ġmas
Ġattended
ĠGarden
yard
Ġintermedi
ĠCT
Ġarranged
Mon
Ġvot
Ġmissions
ĠNeuro
next
WS
Ġsle
ĠFair
ĠEN
Ġreceives
ranch
Ġelementary
obic
Det
Ġmultipl
angel
Ġvine
ĠJava
Ġarrive
Ġanch
cies
Ġpatent
_{
Ġarchitectural
burn
oly
Ġexplores
Ġcameras
Ġgran
Ġshoulder
CN
Ġframeworks
Ġstretch
Ġarter
posed
ĠStill
Ġtwelve
entieth
Ġshopping
fly
Ġlanding
ĠAssessment
Ġpride
utical
Ġpatch
ynasty
Ġcircular
bat
Ġcareers
Ġconfused
ĠHit
omers
Ġbind
Ġstrains
aylor
Ġmetabolic
Ġsecrets
ifer
Ġdischarge
Ġrehab
ĠBest
Ġintelligent
Learn
Ġrhythm
Ġafternoon
iary
Ġhung
Ġbeta
abases
Ġkindness
Ġcamps
Ġhearts
Ġpollut
Ġprogression
ropol
arer
ussian
two
Ġanat
Ġperf
Ġadjacent
Ġentitled
ĠKent
Ġsubsid
MM
Ġstraw
Ġfeatured
ĠMovement
Ġcombinations
Ġatmospheric
Ġwake
ĠOffic
Ġgains
Ġbust
kg
ĠLess
onymous
ĠRab
Ġindicators
Ġmolecule
Ġspons
Ġinflation
Research
rose
ĠFDA
Ġswelling
Ġrepresentatives
Ġcontroversial
cost
ĠFollowing
Ġcollapse
Ġintroducing
Ġtrav
ĠCarib
Ġtendency
Ġsons
Ġanx
Ġintens
Ġinvented
Ġfifth
ulative
?**
Ġcorrelation
Ġcalendar
Ġcelebration
Ġdigit
Ġharmon
Ġeconomies
ĠDat
ĠLuc
away
Ġraises
Ġcooked
dess
ĠFed
mock
Ġfriendship
Ġprol
Ġinstant
Ġ~
learn
ĠFac
Ġearned
Ġasks
Ġelig
Ġcompletion
Ġfate
perties
Ġbee
Ġbold
features
ĠCommunication
issippi
ĠAlaska
Exception
Ġcompeting
ĠEncourage
ĠÂ©
ĠRelations
ĠOregon
Ġweekly
pool
Ġfibers
ĠCond
Ġinjured
Ġpublishing
++
itzer
ĠÏ
uple
ĠNeed
help
Ġmes
gency
ĠBerlin
ĠStation
ĠIndex
Ġmeanings
ĠScript
Ġoptional
oil
yr
ĠWilson
Ġpersonally
reating
"])
ĠON
Ġspine
ĠConclusion
orus
Ġguides
Ġencompass
Ġadventures
BL
ĠCommons
Ġcombines
td
Ġrelating
Ġcampus
ĠTips
ĠDiet
Ġworksheets
gence
Ġconsistency
Ġagreements
Ġevaluated
çļ
swered
ĠHyd
Ġpale
Ġmi
ĠIntellig
law
healthy
Ġcope
Researchers
Ġdinner
Ġangles
omal
inite
Ġkernel
Ġlemon
ĠInterest
ĠSn
Ġgerm
ders
Ġreviewed
forms
ĠObama
]),
ĠPrin
Ġnod
aa
Ġheader
Ã§
Ġpresenting
ĠBody
Ġpoems
hard
Î½
they
template
Ġuncover
Ġhip
Ġhistories
itutes
ĠSTEM
ĠMountain
BD
there
ĠLED
otten
itus
Ġnoun
efits
ercise
ĠSanta
Ġweren
ĠResearchers
Ġbroadcast
Ġcyl
ĊĠĠĠĠĠĠĠĠĠĠĠĠĠĠĠĠĠĠĠĠ
ĠNic
Ġconvenient
ouri
Ġimmense
Ġcontinuously
makers
rizona
ĠJr
Ġoperated
screen
eric
height
Ġassignments
Ġfirms
ĠPhiladelphia
Ġpartly
ĠMother
Ġposted
Ġmirror
Ġcataly
ĠMarc
Ġinstitutional
isations
ĠMap
Ġearthquake
Ġglobally
Ġmetadata
çļĦ
ĠFarm
Ġdeposits
herence
owers
Ġgeometry
TY
Ġofficially
white
Ġarbit
Ġdistress
prov
Scient
iors
aine
parameters
ĠRen
click
ĠBlood
Ġmetap
Ġcontaminated
Ġsystemic
ĠVisual
Ġmutations
Ġthirty
ĠTwitter
oking
Ġrecipe
Ġoffices
Ġinvited
report
coin
Ġemployers
Ġbull
itar
space
kens
Mat
Ġrepresentations
Ġabsorbed
istent
ĠSchools
Ġdepartments
Ġmarkers
Ġfavour
Ġmagazine
claimed
Ġguided
Ġshade
ĠWeek
race
Ġpredators
orer
Ġsacrifice
Ġsteady
Ġrefugees
Ġinsu
etically
Ġsupportive
ĠTrade
Ġattempting
ĠMaking
Ġtransparency
Ġrend
success
imals
ĠMi
who
Ġstrive
Ġpainted
Ġtower
ĠBase
fam
ĠMarg
ĠFish
thew
ĠOrder
Ġiter
Ġqualified
tree
seud
Ġpesticides
yan
Ġinvesting
AF
ĠSpring
Hel
Ġseal
ĠFriday
control
Ġwritings
ĠParam
Ġsch
Ġvag
Ġdescriptions
Ġfootprint
Ġsurvived
enaissance
unar
ĠOpp
placement
Ġexhibition
Ġthickness
ishers
Ġdoses
Ġchamber
initial
PC
Ġmeets
ĠBern
ĠNa
Ġpest
ammad
ĠFig
Ġgaining
Ġslight
ĠADHD
VER
ĠRole
Ġmindfulness
Ġhumidity
ĠIndividual
ĠMental
Ġstatic
Ġpests
Ġow
clusively
Ġwondering
Ġsorts
weet
Ġmonthly
ĠClinical
bro
metric
Ġsalmon
ĠAsh
Ġorganism
ĠMcC
Click
Ġtiming
Ġphrases
Ġmart
anth
select
:`
ĠJones
Ġfont
Ġassociations
Ġrelatives
ĠDecl
Ġelectronics
BI
ĠSem
Ġfolk
aceutical
ĠRepresent
gged
').
Moreover
eps
Ġcommod
ĠLiterature
Ġpartially
Ġmanufacturer
riction
Ġlift
Further
atre
illy
Ġgrapp
Ġpleasure
inely
Ġanswered
nc
Ġheter
Ġworn
Ġchat
ipation
QU
Ġendless
Ġdispers
Ġtalks
Ġblo
Ġaccompany
ĠShort
Ġdoctrine
Ġimpression
Ġdefines
Ġsynthesis
Ġdentist
Ġadvertising
ĠMarx
Ġentrance
ĠAssembly
Ġcoordination
Ġtitles
Ġbattles
Ġorganizing
ifiers
Ġmodify
Ġcategor
lict
Ġrefrig
Ġaccessibility
istically
Ġfolks
effective
Ġphotograp
Ġarrangements
Ġatom
National
Ġmerg
ĠNether
Life
Ġprevalent
Down
Ġyields
ĠAbraham
Ġburned
Ġdiscourse
Ġsustained
Ġhighlighted
Ġwashing
Ġenzyme
lux
Ġappointment
PV
orative
income
Ġwage
Ġber
Ġincorrect
ĠWorking
Ġimplies
sys
ĠKn
Ġsurveillance
dot
Ġinterval
doi
Ġextends
datetime
ĠCra
month
Car
Ġtied
ĊĠĠĠĠĠĠĠĠĠĠĠĠĠ
Ġminister
equal
Ġdiamond
owed
ĠVari
Ġbrothers
Ġpressures
charg
ĠMathemat
Ġwarrant
Ġutilizing
Ġprinter
Ġunpre
Ġlimiting
Ġsubsequently
Ġfears
Ġafraid
Ġbasket
Ġaccomplished
ĠLuther
Ġexecuted
po
pective
ummy
marks
Ġacquisition
Ġcave
Ġmail
ĠPersonal
Ġrooted
arest
ĠAdam
pres
ĠMarine
actic
ĠRo
solving
Ġoffs
riends
Ġgrants
Ġtraditionally
represent
Ġpneum
ĠHard
ĠGar
Ġdrops
ques
ĠMississippi
Ġasset
etheless
Ġpsychiat
iciency
Ġpitch
Ġpartnerships
oard
Ġsurprised
Create
Ġphysicians
Ġaspir
ĠTree
reatment
cultural
ĠPeace
children
Ġmuc
Ġinfluenza
Ġul
ĠFa
isible
Ġtribe
Ġmodes
Ġpayments
ntil
:||
Ġdying
ĠArm
ĠShow
Ġartwork
Ġcontracts
Ġtracks
Ġpine
berries
ĠOrth
Ġ],
stru
ropy
ĠAngeles
ĠAfghan
athan
public
Ġenjoying
Ġassault
verb
Line
Ġcrafts
ibli
Ġsimilarities
UD
Ġgau
Ġprox
Ġgrat
Ġcompleting
Ġbills
vit
ĠAllah
Ġdangers
Ġprovisions
Ġfulf
ĠScientific
Ġevolve
ĠMaria
ĠCharl
ardship
Ġpeaceful
erves
Wind
Ġsail
Ġadmin
ĠTherapy
Find
ounters
ighth
energy
ĠPsychology
á¹
Ġquad
Ġcouncil
may
verages
engine
Ġabol
ocent
uming
ĠArizona
ĠBon
yt
ĠRenaissance
Ġrevolutionary
His
ĠStudent
plement
Ġarrangement
ĠFunction
UP
ĠHarr
Av
ĠMess
ĠThird
Ġconstitutional
ĠHem
Ġvolumes
Ġmysterious
Ġchains
ĠAnimal
ĠLewis
arded
Ġsoap
Ġextr
ĠAccount
Ġpicked
Ġexpressing
images
Ġoccupation
Ġapple
lication
ĠBuddhist
school
ĠCaribbean
Ġdisasters
Ġenemies
ĠQuestions
Ġcompensation
Ġpink
ĠOnt
Ġexit
Ġnamely
Ġallergic
ĠSE
Ġworkshop
Ġseiz
Ġvom
Ġprone
Ġindoor
Ġingredient
Ġslic
eram
Ġatomic
Î¹
,,
ulsion
Ġprofessors
iotic
ington
Ġprescription
inch
Ġminimizing
Ġvice
ĠTechniques
Ġoperator
urally
Ġshowc
arians
account
Ġdedication
good
arts
Ġphon
writing
cycle
Ġtanks
ĠCore
Ġfulfill
hero
Ġsinging
Ġreplied
Ġric
Ġpackaging
Ġalien
Ġobviously
render
åı
Ġexceptional
Ġ'/
Students
ĠEncyclopedia
Ġyoga
ushes
LS
estamp
Ġillustrated
ĠStandards
ouch
ĠCN
ĠGP
ricane
Ġconstitutes
closure
ener
AV
ĠClub
Info
Ġapproached
ibration
integ
enges
Ġbeloved
mind
Ġonset
ĠExec
ĠHan
Ġseasons
Ġcareg
ĠExample
ĠBehavior
ĠCDC
Ġfertility
ĠBa
Ġcoins
ĠHig
Ġwages
Ġpotassium
thal
layers
ĠAPI
channel
MC
Ġperceptions
ĠShakespeare
Ġtags
Ġimposed
Ġaug
ĠConc
RS
Ġboards
utter
ĠRand
Ġawarded
Ġkilometers
ĠBegin
ĠFun
Ġbike
Ġcaring
Ġplasma
Ġoriginated
Ġbutt
Ġediting
auc
Ġmurder
Ġma
ĠDesc
make
ĠRisk
Ġdismiss
ĠURL
Ġworried
ãĢ
ĠFile
ĠFOR
Ġmim
Ġappet
ĠApplications
ĠPeriod
Ġcrust
Di
ĠBit
ucky
Ġshallow
ĠAC
Ġfurniture
Ġcod
agog
Ġ'.
Ġpotatoes
etry
Ġenv
Ġimmers
personal
Ġintegrate
Ġimbal
ramew
ĠJim
Ġclassrooms
Ġmixing
hour
Ġinsist
Ġimmunity
Ġdegradation
Ġnumerical
Ġvaccination
Ġeco
ĠFull
folder
Ġjoining
Ġstereotypes
ĠCold
Ġclusters
Ġheated
Ġextraction
Ġsour
ĠJersey
Ġconcert
fa
seed
Ġspelling
Ġwireless
rell
ĠProtest
Ġfluor
Ġinterpretations
req
lem
ashed
Ġreproduction
onin
Ġverse
Ġcanal
Ġpoliticians
aug
card
inflamm
Ġvisually
Ġtreaty
Node
ĠTenn
Ġcontrary
distance
ĠBio
Ġalignment
ĠNY
Current
Ġprisoners
Ġrecommendation
Mar
Ġmarker
Ġerect
rophic
ermat
Ġdecreases
High
Ġhang
speed
Ġprejud
ĠLu
Ġfrozen
Ġverify
ACT
Ġfrequencies
Ġfluids
ĠQuality
Ġexempl
Ġtorn
leton
Ġreservoir
Ġdefects
ĠWars
Ġwarfare
Ġstuck
adequ
eering
FS
ĠEvolution
Pat
holder
Ġpurchasing
unci
Ġquote
Ġextinction
Ġportions
Ġabroad
Ġbridges
Ġeaten
Ġtoxins
perature
Ġpushed
ĠGene
Ġmusicians
Ġgenetics
Ġirregular
Ġobsc
Supp
ĠMinnes
Ġfees
FC
Ġmainstream
ĠSource
Ġfatal
ĠTrends
Ġrailroad
Ġemphasizing
uisine
Ġkwargs
Ġloans
ĠYOU
second
Ġmonument
Ġnineteenth
Ġsmoothly
Ġcreature
Ġexams
Ġargues
sized
omon
ĠNetherlands
cmd
Ġcompute
iph
Ġreliability
Ġavoided
Ġemergence
Ġantibodies
Ġmile
ilib
gered
Ext
Ġlin
Ġfeas
Ġstrand
Ġgrams
Ġdual
Ġstunning
Ġtrusted
acon
Ġlarv
ĠSearch
dest
Ġchapters
ulates
Ġtens
Ġgifts
PDF
ĠWed
ĠHitler
Ġconsensus
alg
ĠDE
inian
Ġassessed
pur
activity
Ġpoorly
Ġpenc
tein
Ġdeleg
bet
numpy
Ġbands
pus
ĠEssay
Ġalgebra
Ġdatabases
doors
early
ĠTeachers
Ġartifacts
ĠBuddhism
Ġprolonged
anas
Ġeducated
ĠNazi
Ġpatri
Ġprofits
Ġmalaria
ĠSoftware
web
Ġhumor
Ġnerves
Ġbaking
Children
Ġvalley
Ġsenses
Ġties
Ġalgae
Ġstops
struct
ryption
Ġaccountability
Ġtactics
Ġtar
\\
password
generation
Ġà¤
named
iro
plan
entially
Ġenduring
Ġdecent
Ġblend
Ġmira
iative
Ġstrings
Ġcounterparts
Ġdepr
Ġviewing
Ġbeet
Ċĉĉĉĉ
Ġattain
Ġrevealing
Ġattacked
ĠSO
ĠJun
ĠPrince
Ġspecimens
Ġwavel
Ġpupp
ĠAz
flies
vation
idate
Ġtired
Ġodd
Ġtoile
disc
angular
SO
Ġmodules
uclear
Ġexpense
TC
cos
Ġtransparent
omical
cache
Ġpriorit
Ġnurses
Ġlabeled
Ġfollowers
Ġcups
plus
Ġnegatively
Gu
AND
Ġmotivated
Ġctx
Ġcarbohydrates
desc
Ġvacuum
Ġefficacy
Ġmarginalized
Ġretrie
ĠIsa
Ġdisappear
ĠMonday
Ġexert
ĠHot
Ġweapon
ĠTri
govern
rison
ĠSav
ĠJane
ĠLeague
ĠSamuel
Dict
ĠWW
ĠCollect
Ġflooding
Param
Ġformats
rors
Ġdign
Ġchamp
Ġintra
Ġbeef
Ġcasual
don
ez
Ġbearing
ĠGraph
Ġirre
EMA
Ġpassive
ĠĠĠĠĠĠĠĠĠĠĠĠĠĠĠĠĠĠĠĠĠĠĠĠĠĠĠĠĠĠĠĠ
ĠArabic
Ġenl
Ġmeta
ĠGuard
remove
Ġmachinery
ĠMinnesota
Ġprediction
ĠHon
FO
ĠAqu
Ġphases
Ġheroes
piece
Ġrelat
Ġconcentrated
ĠGame
imedia
ben
ĠMissouri
Ġvoting
ĠHu
Ġdiscovering
Ġbiblical
ĠPoland
Ġadmitted
osaur
ATH
ĠSpecifically
Ġdelivering
Ġreconc
owners
Ġpursuing
Ġedit
restr
Response
ĠTyp
Hz
Ġguns
Ġschem
match
ĠJacob
Ġignored
rels
Ġverbal
note
forming
Ġdialect
header
Ġvalve
Ag
akh
Ġfertilizer
pot
ĠKnowledge
ĠArchitect
squ
Ġhorn
Ġenumerate
Ġclues
plet
Ġsubstr
Ġfans
ĠCollab
Ġorganizational
Ġdrawings
temp
Ġtubes
ĠMarsh
Ġshipping
Ġstructured
ĠPope
angers
Ġrelaxation
ĠStephen
Ġaggreg
nea
Ġbowl
Ġmagnet
ĠDemocratic
ĠParticip
ulent
acerb
Ġly
Ġfails
Ġsyll
teenth
Whe
Ġconstitute
Ġtravels
Ġchron
,âĢĻ
RNA
ĠTeaching
General
Ġsegments
ĠHung
Ġtremend
ader
feeding
Ġthinks
effic
pts
âĶĢ
ĠLiving
Ġsacrific
ĠBasic
ĠBuddha
Ġcoral
Ġoperators
Ġfeather
ocaust
quarters
Ġsupervisor
ĠDeath
ĠPresent
ĠMes
ĠTai
consin
Ġrubber
Ġequitable
icked
Ġphysiological
Ġfallen
]['
uri
Size
Ġdevastating
Second
Ġexpedition
ĠPolitical
arten
Ġpolicym
ĠLinux
Ġreserves
Ġrelies
Ġcolleges
Ġlambda
exists
Ġalphabet
Norm
iac
Ġdisparities
bone
ĠNation
emed
Ġdevoted
Ġangry
Recent
ĠContext
Ġcorporations
Ġnecessity
Max
Ġtraveled
Met
complete
ĠDeep
ĠBell
Ġprevented
Ġfestival
Ġuncomfort
Ġnavigation
Ġcommem
meta
Ġepisode
"):
Ġchallenged
ĠIndustrial
nodes
Ġfounder
ĠSweden
ĠFront
Ġrewards
Ġpap
Ġshifting
Ġleak
ĠMaryland
ouring
Ġaster
Ġstiff
lob
when
Ġhills
Ġdecom
insula
ĠBuild
cedented
Water
atories
Ġfoundations
Ġought
ĠBan
Ġcaution
whe
Ġpracticed
Ġstressed
bn
ĠArist
orney
cir
Ġprofiles
liers
aments
ALL
Ġtriggers
Ġcompact
Ġreferring
Ġwatched
ĠAk
Ġvalued
Ġfits
Ġconfront
epoch
Ġcounting
Ġmeter
Ġmatches
Ġviable
Mean
ĠCape
Ġsimilarly
ĠGermans
ingle
option
Ant
sq
Take
Dec
xual
Ġhazardous
ĠLove
Ġresponded
Item
Ġfles
unks
ĠStone
Ġcatast
Ġruling
Ġsymbolic
Ġenhances
ÙĦ
Ġneedle
Ġretire
Ġdrainage
riers
dominal
Ġvon
Ġemphasizes
hetics
Ġmitigate
Ġemission
Ġcapability
ĠMand
acity
Ð»
Ġbeer
Ġexacerb
ĠPhysics
Ġpediatric
ĠRecogn
Ġspirits
ITY
ensing
requency
Ġcorruption
Ġincidents
ĠCit
ĠTaylor
Ġintim
inology
Ġslide
Ġbelongs
Ġverbose
Ġpredominant
rock
ĠEmperor
Ġliberty
================================
Ġorb
Ġhistorically
Ġwinning
bad
Ġinterrupt
ĠRE
ĠJon
Ġexpend
ko
Ġfluctu
oult
ĠIdentify
Ġtensions
Ġgenus
ceeds
Ġbreathe
Ġdefeat
Ġfloating
ĠSuccess
Ġdow
Ġshield
Ġmaximize
Ġlocate
Ġpuzzle
Ġentrepreneurs
had
ylon
torch
ĠTeam
classes
embered
Ġstimulate
Ġrituals
Ġpermitted
closed
.-
Ġaffirm
Ġdominated
hr
cam
Ġdamaging
ĠStatistics
Ġeducate
Christ
inth
Ġgardening
Ġfosters
Ġintervals
ĠScottish
Sym
metry
Ġreinforce
record
plane
Ġautomated
Ġholistic
ĠIntelligence
hot
Ġexclusively
ĠDarwin
Ġhardly
ignment
Ġentries
Ġhypert
Ġadul
INE
iy
Ġpalm
Ġmagnesium
Ġmechanics
Ġchecked
Ġrelates
clean
ĠMuh
Ġattracted
jo
eday
Ġlawn
Ġdetermines
Ġtutorial
Ġbulk
Ġexploitation
Ġunited
olk
Ġaids
Ġrod
ĠInnov
nan
Ġmetrics
Ġdiagnose
Min
Ġdollar
rank
Ġescap
ĠNep
Call
master
SH
seq
Ġadministered
ĠContemporary
ĠRa
Ġrecur
asis
fu
Ġculinary
ogene
ĠLGBTQ
prob
Ã³n
Ġcritics
Ġtalked
ĠMuch
Ġmetric
Ġflowing
Prot
prefix
Ġstir
ppers
Ġinfluencing
Ġjaw
assment
Ġyeast
ĠTib
Ġsucceeded
anol
ï¼Į
Ġvolunteer
Ġbrave
Ġcookies
ĠFem
diction
late
Ġmisunder
feature
Ġrepeatedly
rup
Ġger
Ġrocket
adays
ein
Ġderiv
Make
Ġpars
Ġelectrom
MO
ressions
Ġinjection
ĠFlu
edies
rices
otechnology
Both
ĠCharacter
Ġuncomfortable
Ġdeadly
ĠCommand
Ġstorms
groups
argo
Ġparse
Ġweaken
heart
mus
Red
Ġcls
Ġaddict
âĢĿ)
Ġhistorian
idays
Ġunderm
ĠDun
ĠSleep
Ġgraphics
.]
eland
disciplinary
uesday
Ġinflammatory
Ġdens
Ġtear
ordan
nex
Ġexplos
Ġcreations
ĠIndonesia
Ġinsufficient
Ġterminal
Ġnick
Ġlying
agger
agle
ĠDavis
ĠPict
ĠSep
Ġtreats
rared
Ġpackages
oline
Ġservers
(*
cler
.*
Though
risk
antine
Ġpor
Ġepidemic
Ġwealthy
Ġgenerator
Ġcircuits
Ġpreference
Ġgarlic
transform
Ġsupplied
zzle
CI
Ġspecialists
Ġink
sever
Ġmeteor
Ġsunny
Ġreads
ĠHom
ĠNG
Ġupset
Ġdistinguished
Ġdiarrhea
Ġintensive
Ġautomatic
Ġinvestigations
loads
blems
Ġfolder
Ġoccurrence
ĠCorps
Ġdisposal
ognitive
burgh
Ġmacro
restrial
Ġaccommodate
ĠAh
ĠLay
Ġunprecedented
heres
aft
Ġgland
ĠResource
Ġdisabled
Ġbuilds
Ġdomains
Ġcoordinates
ĠFranklin
Ġhind
Ġ×
Ġillustrations
plicit
idae
ochond
velt
Orig
urated
Ġnewspapers
Ġrou
Ġpublicly
Ġbugs
Ġaquatic
Ġgeography
Ġconsiderably
Ġassumption
Ġautonomy
Ġsurvivors
Ġbrilliant
Ġterrain
job
Ġdelves
Ġencoding
Ġfraud
ĠSab
Ġmarvel
Ġromantic
ĠYe
ROM
ilibrium
ĠRomans
Ġalarm
ĠCenters
)[
appropriate
ĠQur
Ġnurse
ĠUrban
Did
Ġvivid
Ġprotects
ĠDaily
čĊĠĠĠĠĠĠĠĠĠĠĠĠĠĠĠĠĠĠĠ
Ġsignature
.||
ĠGovernor
Ġhunger
Ġsearc
heastern
Ġperipher
Ġsituated
history
Ġlapt
okes
Number
sn
ĠAIDS
Ġframes
Ġhosts
Ġreceptors
Ġarom
Ġbases
ĠGir
Ġvert
ĠTax
arma
Ġreadings
Ġchip
Ġcontradict
rend
ĠHay
Ġundergraduate
linear
Ġcoordinate
Ġtries
Ġmol
Ġcoping
ĠBalt
Public
Ġclosest
pair
Ġrefine
Ġlig
Ġtransaction
users
ĠTy
button
Ġvulnerability
Ġtargeting
Ġloaded
ĠOil
entials
Ġgeographic
uble
Ġzinc
Ġmasses
Ġplots
secution
center
mt
esteem
ĠId
ĠComb
Index
ursday
ĠWisconsin
ĠMaterials
velation
Ġswallow
father
Ġaluminum
Ġheadaches
kal
rots
Ġadvocates
Ġnas
Ġexclusive
efully
Ġbiases
chem
pret
Ġrecycled
Ġorganisation
Ġhill
()`
Ġmatching
steps
GR
Ġvocal
Ġwed
Ġmodifications
ĠGuidelines
Ġunemployment
Ġconclude
ĠNi
Ġbell
)/
ĠGrant
grim
Ġbriefly
Ġregression
Ġloads
Ġgalaxies
olves
Ġtensor
Ġadopting
Ġinvestigated
Ġcrossing
ASE
Ġfut
ORT
ĠVolume
oT
Ġbark
Ġgastro
Ġempirical
iversary
ĠCreative
network
ĠCompar
Ġnort
xf
Ġpathogens
ĠSeries
Ġthumb
Ġadmit
Cent
ĠZh
Ġscreens
Ġprosperity
Ġsuspected
Ġsatellites
Ġvalidation
cd
ilton
Ġbeds
Ġtire
asting
ĠStay
Ġcoinc
Ġpathway
ramework
Ġallergy
Ġunwanted
Ġlets
Ġpromised
Ġbehave
Ġpowered
erial
olescent
Ġclarity
Ġreminder
imeter
xb
Integ
Ġshadow
Ġsorted
Parser
hedral
Ġfootball
Ġdisappoint
building
Ġcel
ĠPR
script
ĠSex
ĠCook
uty
Ġbes
Vis
ĠSher
Ġperformances
ĠMarket
ĠThom
ĠWatch
Ġcues
Ġrats
Ġindicator
Ġdepicted
element
Ġmethodology
ĠOntario
End
Ġconservative
gender
ilty
ĠPrime
anium
obe
counter
ĠMP
Ġdisputes
ĠAges
learning
semble
Ġreplacing
inea
Ġwalked
Ġflags
Ġsomeday
ĠIron
Ġcompromise
opathy
ĠAvailable
nesday
igs
Ġchips
Ġoxid
Pres
ĠVirt
Ġarc
emet
ĠGa
Ġlux
ĠGrade
Ġenact
iley
Ġcomparable
clusivity
Sign
icides
Ġanten
arse
Ġå
Ġoutdoors
ĠContact
Ġdarkness
ĠCop
Ġmissed
Ġdelete
Ġkin
orse
ĠHur
Ġsocially
iscal
Ġdeterior
Ġparliament
'][
Ġtrips
ĠAdvanced
Ġoptimize
Ġ//
Ġencounters
Ġcensus
perial
ĠJean
Ġpromotion
Ġgalaxy
apore
itoring
yers
Ġmysteries
embed
Ġcrystal
Ġimported
Ġcombust
Ġbars
Ġtwentieth
Ġpulled
Ġaccused
Ġprecipitation
âĶĢâĶĢ
ĠCalcul
igating
phal
Ġspecify
ĠHab
Ġconstitu
Ġpriorities
Ġcoin
Ġinformal
ĠMos
ĊĊĊĠĠĠ
Ġintu
Ġpriest
eto
Ġfee
ancies
Ġwonders
Ġinherited
čĊčĊĠĠĠĠĠĠĠ
Ġpipeline
onto
Ġsperm
acular
dy
review
Ġindivid
deg
ĠCut
Ġhoping
ĠSymptoms
ĠStrategies
ilateral
ĠHas
Ġplag
Ġepidem
Ġsteep
Ġlith
ĠSD
ĠDu
ttes
inflammatory
Ġadvocacy
tensor
Ġpresum
eu
Ġprotest
Ġpollutants
ĠVictoria
Ġcalculation
ignt
sun
Ġgenerates
ĠRub
Ġretention
Ġrestored
Comp
ĠLower
Ġrecommends
ĠYears
Ġterrible
ĠEstab
Ġadjustments
samples
ĠRos
Ġcollaborate
ĠKansas
Ġexplanations
Ġiconic
ĠSac
profile
mia
Ġfusion
Ġinstructor
Ġreleases
iasm
overs
Ġincl
Ġpries
Ġmercury
Ġsmallest
effect
insic
ĠNE
fiction
Ġwhales
Ġcrowd
eous
Ġmethane
Ġinadequ
Ġenters
Group
Ġenterprise
columns
nowned
swer
ĠActivity
Ġadvancing
Ġolive
olly
Ġstandardized
ĠTam
ĠBush
oeconomic
annot
Ġyard
Ġkings
Ġdeclined
Ġbehalf
SR
ĠRout
:]
Ġtraject
ĠBelg
Ġsocio
uese
Ġaccordance
(__
Ġcitation
Ġremembered
Ġfailures
Ġvomiting
Ġcite
Ġcompete
ĠDepression
Ġattachment
Ġfungi
ĠTransport
.')
Ġfict
ĠChemical
Ġpursuit
wd
stat
Ġpointing
Ġnecessit
oosevelt
Ġreserve
Ġaccessed
ĠMachine
Ġrear
Ġactivists
expl
Ġplacement
Ġmembership
Ġepoch
ĠGDP
ĠPlanning
Ġtraged
oxic
Ġmanipulation
ĠElectric
Ġrings
Ġoverse
Ġstrengthening
Ġfung
Ġposes
Ġdialog
Ġdot
Ġtrains
icism
FR
Ġconsol
Ġconce
ĠBh
exper
umbled
Ġseverely
mans
Ġhepat
Ġniche
Ġinherit
alpha
Ġanalytical
letter
ĠWalk
Ġcerv
ĠPap
Ġinver
ĠKim
Ġassessing
uffer
Ġbelt
Ġfactories
VD
Ġcheaper
Ġcomputational
Ġpacked
Ġtherapist
ni
enna
cfg
alin
ĠPRO
ĠGh
Ġextending
('/
Ġmud
ĠSpecies
iencies
Ġperceive
ĠAbs
ĠKar
Ġantibiotic
NO
inces
Ġcompression
umer
Ġmush
forest
Ġmilit
Ġdirt
Ġkeyboard
phe
Ġalleg
ĠPerson
Ġtranslate
Ġlesser
eared
ĠBridge
Ġ^
Ġbladder
ĠDougl
Ġupload
accept
Fact
Ġinterpreted
lon
ilem
Ġscattered
Ġsuited
Ġparticipated
metadata
ĠAllow
Ġaesthetic
ĠEns
Ġfarmer
Ġconferences
Ġrival
Ġcounties
lings
Ġdrama
ignty
Ġexecute
Ġdy
anna
Ġtalent
Ġseaf
iffs
Ġsphere
plicity
Ġalb
Ġinventory
Ġsne
Ġneglect
\_
ĠJefferson
ĠÂ°
Request
ĠMong
ĠPoll
Ġadaptive
Ġtribal
ĠSkills
ĠNap
Ġlever
Ġpromises
Ġfundament
Ġcontra
ĠTimmy
Ġspeaks
Ġanymore
imity
Ġdigestion
PRO
Ġsmile
viously
Ġmakers
gon
Ġorganisations
Ġgenetically
ĠDepending
Ġwhilst
Ġbench
ĠSyria
odynam
aturday
........
Ġrolling
ership
Ġcostly
ĠAdapt
ĠTraditional
Ġguiding
aki
emetery
Ġrum
Ġ::
ĠÂ·
tmp
ĠGames
ensively
Ġemployer
ĠReserve
Ġoverweight
omed
black
ochemical
Ġannounce
Ġdivor
Ġcomic
roller
ithub
MT
owa
ĠTypes
Ġbottles
ĠGolden
ationally
ĠWas
ĠYellow
Prof
Ïģ
ergarten
Ġappetite
usr
Ġaltogether
ULT
icultural
Ġwires
ĉĉĉĉĉĉĉĉ
Ġcastle
Ġlicensed
Ġoutputs
Ġtunnel
ĊĠĠĠĠĠĠĠĠĠĠĠĠĠĠ
Ġnuanced
occer
Ġtextbook
Ġpipes
Ġinterference
Disc
Ġlighter
orious
Ġchim
Ġabsent
ĠPred
Ġpolicymakers
ixed
iotics
Ġinitiated
estry
uma
ĠWHO
Ġquantitative
Ġnetworking
ĊĠĠĠĠĠĠĠĠĠĠĠĠĠĠĠĠĠĠĠĠĠĠĠĠĠĠĠĠĠĠĠĠĠĠĠ
ysics
giving
Ġnegotiations
Ġsimulations
Ġunderwater
Ġinvestigating
Ġseparately
iating
gt
oub
amation
Fil
Ġcannab
Ġbay
ĠReturn
amiliar
Ġorn
Ġsupre
Ġgaming
ĠBox
ĠSustainable
Ġdatasets
ĠHTML
ĠSix
Ġdeciding
Ġstrip
Ġcardiac
Ġglasses
Color
Ġcaffe
Ġgroundwater
Ġsubstitute
Ġrescue
ĠWould
ĠDynam
Ġinsulation
ardless
jpg
pip
ĠMit
Ġdesires
iolet
aunt
Ġradius
Ġoperates
OK
Ġdesirable
Ġodds
Ġannot
Ġstrictly
Ġconceptual
pc
Ġregistration
have
Ġdemanding
ĠTen
Ġappropriately
IONS
ĠKennedy
igion
ĠAmendment
ĠThings
days
ĠSche
Ġrequested
Ġrelying
DB
Ġrises
window
mid
Ġconvict
Ġecho
Ġlenses
ĠâĢĿ
Ġwarmer
Ġfragments
Ġoptimization
util
ĠFive
ĠLeon
Ġtelephone
hol
ĠMountains
AI
ĠSud
ĠFall
Ġpecul
Ġeleg
ĠArthur
ĠArgs
Ġceremony
Ġdehyd
Ġtranscript
Ġneighboring
ĠFer
Ġcro
*:
Ġreforms
Ġtemporal
academ
Ġprophe
will
Ġconvention
Ġfreed
Ġsurely
zero
Ġanxious
Ġobtaining
ĠTreaty
ilient
estinal
driven
Ġschemes
Ġlaugh
Ġsucc
cursor
Ġcoupled
Ġhate
utri
Ġcapturing
md
ĠRay
Ġforb
Ġoutlined
ĠPear
GL
register
scill
ĠMuhammad
Ġclosing
Intern
week
ĠOverview
ĠMilitary
Ġtrium
Ġarchaeological
ĠRepublican
Bel
ĠCaptain
Ġartic
Mus
Ġtomorrow
Ðº
Ġslope
Ġacademia
ĠRoosevelt
Sum
ĠArgent
Ġconnects
ĠCountry
Ġboats
ĠTurkish
Ġmounted
ĠHolocaust
ĠCorporation
*.
Ġarrays
utf
Ġtelescope
unciation
Ġpad
Ġblockchain
Ġforgotten
Ġrespected
Ġpharmac
alo
Ġproc
Ġindividually
Ġcelebrating
Ġcondem
Ġpromoted
Ġtimber
Ġastronaut
Ġdrew
ĠPersian
El
Ġcommunicating
Main
Ġfirmly
KEY
ĠTibet
keep
lighten
Ġallev
ĠFreedom
Ġobligations
Ġtempt
Ġzip
ĠSa
Ġgovernor
ĠFord
ĊĠĠĠĠĠĠĠĠĠĠĠĠĠĠĠĠĠ
Ġposture
Ġvolcanic
Diff
held
essee
Ġinduced
Ġexceptions
instein
ĠHealthy
Ġpresentations
Ġchaos
ĠForeign
Message
ĠRun
Ġ""
Ġshortly
Ġjewel
ĠPH
ĠHind
Ġweaknesses
else
Ġscheduled
ĠEdition
ĠPrize
ĠConvers
ĠPrior
Ġenthusiasm
Ġpreschool
Ġeditors
ĠMechan
Ġimpacted
Ġrecovered
Ġcache
ĠGive
ĠEventually
Ġraces
oen
Ġconcentrate
Ġbreakfast
chi
Ġprotagon
Ġroutines
Ġextracted
ĠCirc
elson
Ġapples
obi
Ġlectures
Ġda
FL
Her
ĠLind
Ġbom
Ġtimely
Ġmomentum
Ġpivotal
Sometimes
ĠVersion
ĠPolish
Ġfifty
Ġprest
History
ĠSpr
ĠMIT
Ġpepper
ĠCL
Ġmedian
organisms
ĠBad
Ġsilent
peat
ausea
otle
Common
Ġmutation
RAN
Ġtomatoes
Ġceram
ĠDuke
Ġthrilling
Ġendeav
ricks
overing
ergies
Ġprogrammes
Ġstays
Mult
Ġmetres
Ġtestim
Ġrebell
Ġmagnific
ĠEducational
ĠGreg
Ġlarvae
Ġwitnessed
ĠCompan
global
orne
ĠRog
Ġions
Ġusername
Ġdestro
ĠConcept
Ġpassengers
sens
ĠTalk
ĠAfghanistan
Ġgrey
kh
Ġneurological
ĠTal
Ġmigrations
ĠFinancial
itics
Ġpremature
Ġsugars
Ġinquiry
arettes
Opt
sleep
Ġbuffer
stra
Ġpossession
ĠPhilippines
ĠLarge
rolling
Ġmiscon
Ġemotionally
Ġwhites
upiter
Ġeligible
Ġfier
Ġhint
aund
Ġaccumulation
Ġmanipulate
Ġmanufactured
ĠPa
Ġriding
ĠMission
BO
Ġmorality
Ġbrut
ĠArmen
Ġposed
Ġasync
ĠOs
ĠAlong
Ġplanes
oths
Ġomega
ĠTrump
Event
lied
Ġcuisine
Ġblacks
ĠDate
optim
hester
Ġtraced
ĠMagn
Ġoneself
Ġresponding
Ġmelan
Ġchop
Element
ĠCollection
jan
uncture
Ġpolymer
Ġcharts
aux
Ġrepos
ĠOwn
execute
Ġgums
bool
Ġthy
ĠMiller
Ġvapor
Ġtransist
ĠPast
Ġelaborate
âĦ
SON
ĠAdvent
four
ova
Ġaligned
proof
Ġflies
arms
Ġalleged
Ġdispute
Ġmelting
Ġlegitimate
wait
Ġbowel
weights
Ġgenres
Ġenvironmentally
ulture
Ġunfair
five
Ġconfron
Ġadvised
ĠRap
terns
ĠMatthew
Ġintermediate
Ġslower
Ġpollen
âĪĴ
Ġpulse
ĠCru
Ġdisp
Scientists
Ġskull
Ġoccasions
Ġbod
Ġsocioeconomic
Ġacknowledging
Ġphysic
----------------------------
oultry
Ġepic
available
Ġpharmaceutical
('--
ĠAgree
fin
ĠMoh
offset
ĠDefense
Ġdenied
Ġcontroversy
urred
Ġbon
ĠHispan
Ġcavity
ikh
isphere
ighters
Ġconsp
ĠPil
Ġbustling
ĠNig
Ġbreakthrough
Ġconvinced
Ġsubstantially
Ġblame
Ġconjunction
orie
Ġcum
Ġjurisdiction
Ġsynthes
Ġoffspring
Ġmarch
Ġsecular
.",
Free
itime
Ġforcing
articles
Ġ",
ĠKat
Ġincons
esty
ĠSingapore
Ġrelieve
Ġcivilizations
ĠPlants
Ġanest
engu
ĠCensus
Ġtremendous
Mr
Ġmultif
ĠBoy
Ġtitled
Ġsatisfied
osphere
idel
Ġwax
Ġarises
insert
Ġresidence
pytest
Ġthrown
ĠMu
Ġdeemed
bled
Ġdivisions
Ġpassionate
Ġrenowned
ĠDiego
TA
xml
ĠBird
pling
Ġappealing
Aug
ĠObserv
usive
Ġlegally
Â©
Ġambig
Several
ĠHunt
Ġdear
language
Ġunclear
bral
shot
Ġsauce
Ġfertile
ĠHawaii
Ġbrick
ulas
Copyright
Ġradar
Num
resses
ĠMonth
ĠClark
Ġcitizenship
ĠPortuguese
Ġsends
Ġwool
ĠĠĠĠĠĠĠĠĠĠĠĠ
imated
Ġ',
PP
esome
wiki
Ġjudges
eft
ĠThompson
Ġlegislative
dt
Ġworkforce
dam
olecular
Ġgay
produ
Ġanyway
proto
Ġhub
ĠOp
Ġprojected
Ġunfamiliar
ĠCustom
ĠEthiop
prehens
Ġhandy
ĠHold
Ġdignity
ĠBow
Ġsolved
Ġflesh
ĠBall
ĠAustria
Web
ophers
super
Acc
ĠLily
aren
ĠChile
induced
Ġreceptor
letal
Ġprostate
mouth
Ġabdominal
Ġreass
ĠJo
ĠUtil
ĠIndependence
Ġinvisible
ĠChallenges
God
SM
Ä«
clip
âĤ¬
tests
ĠNorway
Ġemphasized
?)
fat
GB
Ġconsisted
Ġsurviving
Ġrevision
rasound
Ġimpaired
ĠPoly
Ġplaque
Ġ'__
ĠLo
Ġletting
ĠResponse
IX
Ġclassmates
Ġprost
Ġenjoyable
stats
ĠAboriginal
monary
Ġedited
ĠCreating
accur
ĠSmart
Ġtablets
lass
Ġtreasure
Ġworksheet
Ġranks
Good
Ġpurple
ĠLands
ĠDisorder
Ġspr
GA
lies
ĠArk
interest
except
tesy
Îµ
Ġwounds
Ġnotably
information
channels
ĠIsraeli
ATA
Jan
ĠUsually
Ġtheater
ĠEX
km
Ġbrows
Ġaven
ARS
Ġsilence
Ġinclusivity
ĠTour
Ġlacking
Ġstrikes
Ġsalary
ĠHad
Ġbanking
ellar
Ġip
Ġsupervision
Ġmelt
ĠIce
news
Ġecology
Black
olith
Ġsimpler
acke
ĠEffects
odge
Ġtrap
Ġdos
imation
Ġoxide
ĠDeterm
Ġuniqu
Ġcultivating
ĠProtect
ĠOw
ĠAnne
Ġpoisoning
ĠUtah
Europe
Ġvariability
Ġpersonalized
ims
Ġdecreasing
Ġcarcin
Ġflux
mn
Ġwheels
Open
ERE
admin
IND
Ġunhealthy
ĠSyndrome
ĠProphet
Ġstoring
ĠWH
Ent
hash
ĠTele
Ġnaval
Ġdece
Ġspont
Ġautonomous
Ġincentives
ĠAmb
mill
Ġidentifies
Ġrehabilitation
ĠRaj
ĠResults
Ġstretching
Ġsnake
ounding
Ġkidneys
Ġballs
vement
Load
ĠFlow
Vol
Ġpotent
Ġmast
Ġintact
tail
Ġcrafting
exit
ĠAdams
ĠPublishing
-------
ĠAlbert
Ġseas
ĠLouisiana
Ġambit
Ġagenda
Ġopenly
Thus
ruce
Ġgross
inton
Ġcertified
Ġdefeated
osaurs
especially
ĠSi
)**
ĠFA
ĠPA
Non
ĠNat
Ġrigid
Those
people
Ġmathematic
Return
owing
weed
wich
Fi
ĠParents
ĠFiction
ĠSite
third
Ġrefined
ĠGenerally
ĠSoutheast
Ġdiscusses
uana
Ġcontinually
ĠTennessee
Ġanniversary
Ġ):
Ġexplosion
Ġthreatening
Ġignor
itu
tainer
Ġproblematic
reach
ĠCho
Ġcrash
Ġrestaurants
Ġadvocating
agrams
Ġeliminating
Ġdenom
Ġdump
Sw
zens
ricular
rative
ods
)-
Ġsor
Ġshops
Oct
Ġrating
vised
cker
erce
elong
Ġstro
erald
Ġglands
Ġbalancing
Which
Ben
Ġadhes
ACK
Ġmaintains
Ġcertificate
Ġtraces
venue
Ġtriumph
Ġciv
Ġaffili
Ġtuple
Ġmenstru
Ġpyram
Ġstimulation
)*
Ġventure
Fore
lastname
ĠTeacher
Learning
ĠDeclaration
sole
ĊĊĉ
Ġequilibrium
Ġcertification
Ġenfor
ĠChap
Ġcounseling
ĠKong
Ġwells
adian
Ġcows
ĊĠĠĠĠĠĠĠĠĠĠĠĠĠĠĠĠĠĠĠĠĠ
Ġsynchron
Ġmyths
Ġglue
Ġartery
Ġfake
Ġdancing
ĠPack
connection
Ġpanic
Ġdamp
asted
Ġsomehow
itzerland
","
Ġscholar
achment
ĠDiabetes
Ġfled
Ġfounding
adi
Ġpaste
Ġmargin
ĠHong
vely
Ġpassages
anny
Ġvirtue
Tube
Ġmaternal
Ġcov
Ġgreet
abetic
Ġbip
izable
inging
Ġposter
æľ
Ġsrc
eded
Ġbreakdown
)?
ĠCarbon
Ġoppression
Ġadversity
Ġneighborhoods
URL
verts
Ġacknowledged
intestinal
Ġprefix
Ġpermits
Ġquot
tz
Ġresort
Ġsore
)(
DC
ĠNobel
Ġdwell
Ġnoting
Ġapproaching
ĠJuda
Ġstocks
Ġforty
oolean
Ġimpul
Ġgluten
ÏĦ
Ġmonetary
Module
Ġdough
shore
powered
Ġpert
portion
Ġjun
imb
ĠLesson
Mark
jamin
Ġinterfere
FP
Ġarteries
Ġoct
ĠJordan
Ġsovereignty
Ġtender
Ġabd
Ġurgent
Ġlact
ĠGas
Ġtrapped
apsed
Ġprobe
Ġsho
tan
keley
Ġuter
Ġmastering
ĠCert
states
amel
ĠLink
Bar
otive
ĠBesides
Ġgrave
expr
EA
Ġvisualize
Ġscholarship
comb
anting
Ġplastics
Ġupcoming
Ġsoup
Ġregulated
rology
opter
Ġmythology
Ġvoters
Ġbitter
Ġconsultation
Ġconventions
Ġoven
olas
Ġbasin
Ġelevation
uning
ĠLoss
Ġskip
Ġrhet
Ġdysfunction
ĠGPS
ĠGreeks
Ġextensively
Ġdownt
Ġtransit
åĪ
Ġfailing
domain
Ġsnap
urgery
rade
Ġdamages
lightenment
Ġmasks
Ġlunar
Ġdependence
ilingual
Ġsoda
Ġconfined
ĠSimple
Ġwolf
Ġpraise
times
Ġguests
Ġvoluntary
aping
Ġobese
ĠEveryone
seen
ĠSimilar
pton
Ġhierarch
Ġepisodes
Ġgel
ĠAffairs
Ġapi
ĠBapt
oriented
MR
qa
Ġoutstanding
stock
Ġstrat
Ġtourists
Ġloyalty
Ġcf
Ġ".
Ġdispro
sort
Ġdiscount
xc
bestos
Ġpulumi
Ġallies
Ġsensation
Ġwithdrawal
Ġhasn
ĠStories
urations
ĠBot
Ġloves
Ġprovinces
mount
Ġmesh
Ġdilem
ctx
atern
Ġdraws
ante
Sur
olerance
ĠExcel
Ġmodification
Ġruler
Ġglow
Ġepit
Ġidx
docs
lav
Ġrecru
Ġveterin
itations
Ġcurrents
Ġindication
lades
Ġnewborn
Photo
Ġmonitored
Ġpigs
Ġ||
Ġseats
Ġmatplotlib
ĠPatients
ĠPMID
Ġcaffeine
Ġguilty
Ġaltitude
ĠCertain
xchange
Ġduct
stage
Ġpatches
Ġsmok
Ġdifferential
Ġgradient
Ġtouching
ĠPi
atherine
Ġambitious
ĠParameters
Ġyours
Ġsaturated
Ġstayed
erating
Ġmindful
ĠHal
rocery
Ġconfusing
ĠCloud
angles
Ġfriction
Ġheaded
Ġtransforming
educ
ĠBroad
Ġbrands
Ġwellness
Ġimprison
Ġthreads
Ġnumb
Ġmines
Ġappliances
Ġpeculiar
ĠJupiter
Ñĥ
ottom
ĠBah
gate
Ġvoy
Ġshar
Ġglory
ĠBenefits
ĠConfederate
Ġindices
Ġintentions
Ġinvite
ussion
Ġcarp
Ġresolved
ĠIssue
autions
Ġenthusiasts
Ġfluores
Ġbiomass
Ġtriggered
Ġdescent
Ġcorners
"{
Ġviewers
Ġmuseums
ographies
ivism
Ġheaders
ĠProtocol
Ġelectromagnetic
ackexchange
iblings
Ġscholarly
Does
Ġarrested
Ġaccepting
rosion
Ġdeepen
rones
ĠDocument
ĠLady
ĠAstron
look
ĠSound
Ġwarmth
Ġteenagers
Ġanimation
Ġhoped
Ġhypertension
Ġmagnificent
isa
ĠFriends
zech
Ġinteracting
Ġpresidential
ĠIC
achelor
mi
Ġrepublic
Ġdelayed
Among
Ùİ
Top
ĠRod
WH
imental
Ġjet
Ġstopping
Pol
Ġresearching
hell
Ġeverybody
ĠØ
DI
Ġinspection
oors
ĠBlock
ĠKenya
iser
ĠNort
Ġmetaphor
Ġports
Ġcolours
ODO
Ġvectors
ifting
ĠTuesday
acre
Ġnutrit
Ġimagined
Ġgroundbreaking
Dev
Ġlining
Ġconform
Ġcement
ĠMathematics
ĠImperial
sent
oty
Ġintestinal
ĠUkraine
Ġcous
ĠDub
Ġevac
ventional
Ġlawyer
agus
ĠGer
onut
âĦ¢
Bas
Ġgang
Ġdistribute
Ġemploying
Ġsubmission
Ġcarrier
Ġnucleus
Ġfairness
bird
TSD
ĠLegal
ĠConsult
LC
kit
Ġalternate
Ġfictional
Know
incial
inputs
Ġtrag
eeze
Ġconstructing
Ġsew
Ġsoldier
rubs
Ġcock
Ġallocation
asa
Ġ"/
plug
Ġrecruit
ĠMalays
Ġstraightforward
ĠJoh
Ġbulbs
Ġholidays
nl
Ġsoccer
Ġfart
Ġsink
Ġvend
Ġshells
Ġokay
']:
Ġcontroller
ynthesis
crit
ĠRoss
tech
Ġrevised
Unfortunately
Ġfreshwater
Ġantioxidants
ĠExecutive
Ġvotes
ucks
Ġshooting
AGE
Ġinstructional
cha
Ġassim
Ġtapestry
ĠCastle
Ġspices
roleum
ĠMethods
udden
Project
cluster
DO
keeping
ĠAlab
Ġbillions
Ġyog
Ġpytest
Ġtalents
English
Ġemails
ĠVin
food
Ġnoble
Ġovert
Ġmul
ĠPit
Ġamph
merce
stackexchange
controlled
ĠEle
Ġcompanion
Ġproposals
ĠPrimary
Human
ĠUC
Ġadjusted
cription
ige
ikes
ĠSri
Following
Est
Ġunfold
Ġheading
Ġintroduces
Ġtraumatic
Ġcrystals
ĠEaster
ĠKit
Ġcouples
written
ĠPhilosophy
Ġsettlements
ĠCapital
Ġnobody
INT
avy
Ġvow
Ġworthy
resistant
ogenesis
Ġmotif
Ġimpairment
Ġdemonstration
ĠElement
ĠAnti
fred
onial
Ġgam
ĠPhilip
Ġfleet
amous
ĠRegional
Ġmaj
bian
Ġhiding
ĠCab
ĠNight
Ġvariant
ĠThursday
ĠMaya
Select
ĠRadio
bling
Ġmicrobes
ĠAy
obia
aman
Ġtransitions
Ġtriangle
Ġgravit
analysis
ĠVill
ĠEarl
aga
matic
ĠQuant
ti
folio
ĠHub
Ġactivated
ĠTaking
ĠSaturday
ĠFest
ĠTech
Ġdestructive
Ġinevitable
eton
unes
Ġguilt
Ġtemples
Ġclubs
factory
Ġcrossed
Ġuncon
Ġundertaken
Ġinstinct
Ġdesigner
Dat
Ġconnectivity
ĠIndustry
ĠNich
your
ĠPV
Const
}{
Ġgratitude
Ġconfidential
immune
Ġhanging
akota
Oper
Ġfoundational
Only
Ġillustrates
Ġlongest
Ġbore
Ġrenewed
usually
ĠBCE
Spe
mother
Ġdozen
layout
Ġexamines
Ġerad
ĠWi
ĠSwitzerland
Ġunto
ĠMemorial
lan
Ġasym
Ġshots
Åį
Ġtruck
prof
coord
ĠTerrit
uuid
Ġtears
Ġlikes
ĠStruct
Ġbaseline
/{
Ġresilient
Ġbapt
Ġradioactive
Author
market
ĠArchae
ĠUpon
ĠRespons
Ġinserted
ulator
aran
Ġgoddess
Ġwhis
Ġheadache
Ġveins
Ġvalidate
Day
Ġinadequate
Ġencryption
reshape
Access
----------------------------------------------------------------
Ġlateral
Ġmemorable
django
views
ĠFreder
ĠCV
ä»
astically
omics
riad
ĠGil
GET
Ġexcluded
ĠWednesday
ennis
ĠFisher
Ġcultivation
Ġoutbreaks
Long
isite
ĠRose
Ġpartition
edic
Ġsequencing
uf
Ġank
urtles
atis
ĠKind
Ġprelim
Ġhungry
eman
Ġopio
required
via
acial
Ġplural
ĠðŁ
ĠWy
urgical
ĠPos
ĊĠĠĠĠĠĠĠĠĠĠĠĠĠĠĠĠĠĠĠĠĠĠĠĠĠ
Ġjourneys
ĠJour
Ġthriving
Ġovernight
ĠIndiana
Ġwarnings
Ġcompatible
ĠStore
oscow
Ġreproduce
Ġreleasing
figure
training
Ġpa
Ġeternal
Early
Ġbreeds
Ġeliminated
Ġhepatitis
Elect
raul
Ġparamount
Ġcomics
both
Ġlifes
?<
Ġcontacts
ĠAlabama
ĠNC
Ġgrounded
ĠSQL
ĠRain
ĠAnton
ĠHarm
rator
Ġwrap
Ġmillenn
aml
severance
din
Ġoverlooked
created
Ġversatile
Ġcoating
stable
ĠPier
ocide
agent
mercial
ĠLawrence
ĠProfessional
Ġheightened
Ġconsiders
Ġ).
Ġblocked
Ġchemotherapy
Ġcatalog
ĠTesting
Ġhandled
Ġvisualization
Ġmitochond
Ġvigil
ĠVideo
Ġprints
onts
Ġjack
Ġparasites
ĠTravel
Ġdesper
ĠChemistry
ĠĊĠĠĠĠĠĠĠ
eron
Ġdelta
Ġfacilitating
UG
Ġarising
Widget
indices
heum
Ġlocals
Anal
Ġdrying
oubted
Ġafterwards
=-
ĠBrad
ocur
Ġuncommon
Ġexhibits
}")
ĠDiseases
ĠVeter
ĠTools
ĠQt
Ġvalidity
ropolitan
Ġbirthday
Ġmosquito
Social
ĠTerm
Ġdemographic
Ġdividing
minded
Ġsake
Ġventilation
izoph
ĠSoon
Ġtoll
rophy
Ġpere
Ġmobil
Ġconvenience
ĠFactors
erto
Ġcorrection
ĠSong
Ġclarify
Ġnausea
Ġvisibility
Ġescal
ĠQuestion
Ġconsec
Ġvariants
Food
foo
ĠSant
Ġrestaurant
Ġloving
Ġexpose
Ġadministrators
EMAIL
=['
Ġconditioning
economic
Ġperiodic
Ġcaut
aughters
ĠPractices
Ġadulthood
Search
Ġmandatory
ĠLie
ĠUpper
factor
icut
Ġextinct
ĠAra
manager
ĠDor
Ġ[],
Ġcapitalism
Ident
ĠDal
Ġmant
Ġoscill
Ġdisplacement
Ġcruel
Ġberries
Ġstain
Ġcleaner
Ġpurely
Ġbanned
ĠJamie
ĠKal
rosis
zip
ĠSports
Ġdele
ethyl
ĠOttoman
Ġcombustion
Ġpeas
player
oglob
Ġimplant
Ġdescendants
gly
Ġadapting
čĊĉ
Ġsurgeon
ĠStock
izophren
zo
ĠTrib
Ġremedies
ERR
Ġlasted
Ġloading
Ġlesions
estab
Ġfinancing
Ġrelied
ĠActivities
boards
Ġalleviate
ĠBBC
Ġthrone
irk
ĠOK
Ġstatue
asia
audi
sql
olia
Ġeconomically
parents
Ġmicrobial
La
xe
Ġstamp
ĠVirtual
Ġappend
display
Ġpanc
Ġtransported
Ġram
Ġinteger
Ġwolves
ĠFat
handler
Ġpunct
AST
ridge
Ġcomparative
Ġtemporarily
Ġozone
ĠHans
Ġautumn
Ġbats
ĠSC
ĠLes
illes
ĠCool
Ġhash
Ġquestioning
Ġretained
Ġtroubles
ĠProtestant
ĠCham
ĠWhit
#!
alling
Ġharvesting
Ġclever
Ġwanting
ĠBanglades
Ġutilization
houses
Ġinh
Ġhorizon
Ġspell
Level
ĠPra
Ġexotic
erk
Ġmaturity
ĠYouth
Ġdrill
Ġautomation
Ġdilig
ĠHait
Ġoccasional
ĠZe
Ġsq
Ġmicrobi
his
itched
Ġmasters
Ġfavorable
Ju
ĠExercise
:-
Ġgrocery
species
ĠEuropeans
ĠApplication
ĠCro
Ġwetlands
Ġrecreational
ride
omial
xd
agu
ĠBarb
ĠTypically
Ġimplied
ugar
ĠSimon
SN
ĠAristotle
Ġpriests
ĠGi
ĠCass
Ġhierarchy
ĠOrthodox
ĠEuro
Ġwounded
Ġphilosopher
FIL
Ġbesides
Ġcosmic
enh
Ġtrim
Ġrailway
HR
Ġgym
Ġrandomly
Ġresting
Green
Ġsufficiently
Ġunint
Given
nut
Ġgauge
Ġenforce
Ġslides
Ġcram
ockets
Mem
threat
Having
ĠFox
Ġburst
Ġpandas
elle
ĠReflect
Ġperme
national
illery
Ġaspiring
Âł
Ġproximity
Ġquotes
eld
ixtures
Ġfossils
ĠGrowth
Ġpoultry
Ġtwe
NAL
than
Ġreset
bes
Ġdeployed
rosc
Ġassuming
ĠWIT
article
Ġpotato
ĠJudaism
ĠStaff
Ġcollectively
SU
ĠThank
ĠEV
move
ĠAuthority
Ġdwar
Ġhotel
Column
Ġregards
Ġshoulders
Ġtutor
Ġmankind
Ġspite
Ġcohes
Ġcharging
Ġpreliminary
Ġmad
racing
Ġreply
Ġearthquakes
ensis
ĠCritical
Ġna
ĠEmily
Ġsexuality
Ġpronounced
Ġsanct
ĠBeach
alia
ĠÃĹ
ĠED
sin
urrection
ĠChi
________________
iolence
ĠToronto
Ġvic
Ġburial
Ġsilk
Ġwarned
ĠNigeria
Ġsingular
thread
posure
ĠProblem
PN
Ġfancy
Ġbicy
Ġsword
Ġportable
Ġfloods
ovenant
Ġreconstruct
Ġore
emat
Ġadmission
Map
Ġpicking
Ġstimuli
Ġib
Ġtragedy
ĠLastly
rish
loop
oubtedly
Ġ##
Ġdated
Ġutf
Cur
Ġghost
utor
Process
ĊĠĠĠĠĠĠ
ĠKentucky
short
aza
Ġsiblings
Ġprotests
WA
Ġshowcase
Ġswitching
argv
istle
ivia
arette
Ġnurturing
iasis
ĠArchives
ĠCuba
rable
Ġorch
Ġcomprised
Ġquit
Ġtomb
Ġtodd
Ġembod
stan
isan
Ġate
Ġdeployment
ĠYouTube
dependent
Ġdiscern
Develop
Ġadvertise
Ġuntreated
ania
Ġlinking
iller
ĠWords
Ġprototype
Ġadaptations
ĠStress
ĠKings
uz
Ġbuttons
Ġillustration
Ġtrash
Ġpoets
ĠInitiative
github
ĠDiagn
ĠEconomics
Ġwherever
Ġlivelihood
Ġbytes
volume
ĠAgricultural
commit
alid
Ġprocessor
Ġentails
ĠOm
minute
serial
ĠTask
Ġleather
.<
Ġcommerce
UC
Ġsignaling
Ġsilicon
Ġnour
ĠUniverse
ndarray
Ġneat
determ
Ġbloom
Ġsuperhero
Ġexercising
Ġfired
ioned
ĠHistoric
Ġpropose
Ġsumm
ĠSM
Ġdissolved
Ġmetall
Ġbureau
emen
Ġgraphs
Ġremedy
Ġnutritious
pher
Ġwoods
Ġbug
ĠOt
uating
ĠCzech
Ġparticipant
Great
directory
Ã£
levant
Ġhomeless
ĠStanford
Ġdrilling
Handler
emption
ĠDenmark
TestCase
Ġfirstname
ĠCand
Ġpneumonia
Ġcompiled
Ġinability
ĠMoscow
roximately
ĠSpect
Book
ogg
Ġlisting
Ġcooler
Ġcomprises
bb
isol
never
Ġpulling
Ġoffensive
area
Ġmodest
Ġretirement
ĠUSDA
Ġtoilet
ĠFeed
renal
Ġelite
URE
Ġnearest
Ġcomposite
ĠGround
ĠCredit
Ġtuber
Af
Ġantioxidant
Ġadaptability
course
Ġwhale
æķ
Ġgrief
Ġinterven
bid
ĠIowa
ĠHarry
mble
inge
ĠCamb
oqu
ĠDark
ĠCoal
Ġ'-
Ġcommander
Head
uler
Ġsuppose
Ġformally
Ġpolym
ĠBetter
âĸĪ
ĠRegion
ĠBelow
Ġquestionna
mass
Ġsixth
:*
ĠSwedish
Ġlearner
ĠGre
Ġopposing
Ġshelf
sche
ĠOpportun
Ġpiano
ĠChen
Ġpropri
ĠMO
Ġshifted
Ev
)).
upuncture
Ġfragile
Ġconve
beat
ĠPatrick
Ġadjusting
cision
Ġqueen
metic
Ġscrut
hidden
Ġtransformative
Button
ĠEvidence
Ġsnack
ifiable
Str
Ġweeds
ĠConserv
Ġhits
Ġrust
Ġ"\
auto
ĠAlliance
Ġfluctuations
Ġinstrumental
~~~~
igo
tees
ĠVery
Ġdrum
Ġreminded
ĠPrinciples
ĠMas
Ġspecially
Ïī
Ġevenly
Ġpredominantly
Ġpseud
aus
Ġcultivated
Ġsatisfy
cp
ĠFacts
onics
Ġnewfound
Ġcharity
mo
klah
neath
Ġscratch
ĠBenjamin
Science
eros
ĠParkinson
Ġpencil
ipy
Ġlitter
Ġregen
ĠProb
Ġdisappeared
Ġprayers
Ġshame
clerosis
strong
FOR
custom
__':
Ġculturally
Ġsuggestion
ĠPrevent
ĠHo
Ġoccupational
Meanwhile
cv
ICE
CharField
wealth
Ġscatter
Ġglance
Types
Ġtie
aron
ĠHou
ailure
Ġdop
).__
mel
ĠRemove
Method
Ġflowering
usions
ollo
icode
Ġwishes
Ġclaiming
Ġphilosophers
ĠPalestine
Ġá
ĠTorah
Ġrulers
Lastly
Ġample
limited
ĠNA
bytes
ĠBud
ĠMoore
Code
category
Ġpumps
Ġmarking
Ġpermanently
ĠRoc
onder
Ġmosquitoes
gument
inar
Ġoverhead
Ġparental
ASS
writer
Ġratios
Ġcmd
Ġstating
aceted
htm
ĠIssues
Ġcomplementary
Ġutter
curs
Prov
Ġperipheral
Ġtoxicity
ĠKhan
Ġlifelong
flu
pill
DIR
welling
ĠPrepar
Ġinfinite
Client
Edit
Ġencompasses
ĠEli
Ġemperor
ĠLanc
ĠContent
login
âĢ¦.
arry
Ġhi
Ġwatering
ĠAdditional
Ġfantasy
Download
Ġinstantly
ĠArchived
ĠApproach
Ġtreasures
Ġmonarch
Page
Ġsemester
Ġarsen
">
DataFrame
Ġps
lessness
Ġresidual
IB
Ġadvise
Ġpublisher
erer
Ġrendering
future
Ġlengths
Ġaggression
ĠPopulation
ĠNewton
Ġverses
Ġinvested
Ġstruggled
ĠBrook
Ġmicroscope
Ġpuzzles
ificant
ĠNorthwest
Ġfrost
Ġcoronavirus
ĠTaiwan
Ġobligation
PM
prim
Ġadvancement
Ġpenalty
Ġwherein
Ġclimbing
Ġsupporters
ĠPartners
ĠSyd
Ġarchitects
etric
Ġmicroorganisms
Ġanalytics
Ġwilderness
Ġsticks
orestation
Ġgeometric
SQL
ignant
ĠAnderson
ĠCos
ĠSummer
Ġtangible
Keep
ĠNurs
Ġgradual
ocytes
Ġfitting
Tensor
ĠSel
Ġinterpersonal
Ġindoors
Ġrejection
Ġjewelry
leys
tags
ĠDemocr
ĠVictorian
ouraging
esterday
MOD
leading
Ġfool
Ġgeneric
ĠSoil
Ġrefere
Ġacademics
Ġfeasible
THE
ĠFried
Ġsubjected
gb
ĠCart
Ġreluct
rove
]<
Ġoverlap
Ġwatershed
Ġfeathers
klahoma
Ġpacket
unc
Ġmyriad
Ġstumbled
fund
Ġsuppress
Ġabdomen
ĠNan
Ġsli
ĠTool
RN
Ġguitar
Ġclinic
owner
ĠPerformance
Commun
ĠDick
ĠBerkeley
Ġumb
hu
Ġho
Ġpole
Ġopponents
tab
Ġgig
Ġgamb
Ġjudicial
Ġappreciated
ĠAccessed
";
ailand
ĠDeveloping
arbon
cores
Ġunions
Ġjustify
ĠHun
ĠJoint
Ġcurves
Ġdermat
Ġcarved
izza
ĠJob
prop
headers
policy
inence
Ġworms
Ġrabbit
Ġscarc
Ġoverwhelmed
Ġgravitational
Ġwalks
route
hind
Ġcompetitors
Ġrealizing
Ġoak
Ġexplorers
Ġupt
Ġdeck
Ġmentally
opor
rencies
Ġcitations
ĠWAR
Ġcaregivers
ĠWright
Ġtent
Ġhire
ĠTotal
Unit
Ġhandful
UE
ĠCommunist
ĠRecord
Ġpir
hesia
Ġenvelop
Ġbodily
ĠPs
Ġpean
atility
ighting
Status
Ġcraw
ĠWinter
cca
rite
ACE
ĠMs
Ġlowering
party
Ġammon
fficiency
Ġprivilege
Ġcarn
API
ĠDefinition
Yet
Ġaloud
ardo
Comput
star
Ġsecured
flat
ĠAward
ĠLakes
urban
nsic
ĠCurrently
Ġinduce
Home
ĠBat
ERT
EV
Ġclip
Ġdeliber
tml
Ġregulating
ĠSure
Ġdozens
Ġofferings
upp
ĠGenesis
wave
Ġwashed
ĠAllen
vo
ĠAutom
Ġpedagog
ĠâĢĻ
Ġrespondents
Ġdiffers
Ġtrucks
ĠByz
("\
ĠMeasure
odd
Ġthoughtful
Cor
Ġconception
Direct
Ġbarely
ĠPeters
ABLE
Ġfiscal
"]["
'}
Ġsits
Ġintersect
Ġfreezing
ĠMemory
Ġlimbs
Ġcompanions
ĠProvide
rea
Ġrept
ograms
ORE
uy
ĠLtd
Ġweekend
ĠImmun
ĊĠĠĠĠĠĠĠĠĠĠĠĠĠĠĠĠĠĠ
Ġfungus
cence
Ġana
ĠGand
ĠAli
Ġclicking
ho
Ãº
Ġreductions
Ġprecautions
ĠAgreement
Ġcontempl
Ġcortex
Ġcanon
ĠAround
Ġbibli
ĠDog
ĠInfect
ĠHart
Ġmeats
schema
riages
clamation
izophrenia
uated
sqrt
Ġgy
Ġelectroly
PubMed
Bet
Ra
ĠSay
Ġdelib
irie
threshold
Ġlanded
Ġsnakes
ĠTB
Ġabst
ulsive
Ġharassment
ertation
inus
ryst
positive
Ġcontinuity
Ġterritorial
Ġtransformations
Whether
ĠSyn
Ġadherence
Ġadolescent
Ġburns
ĠAnglo
ĠBangladesh
Ġretired
ĠImages
Ġspider
Ġproceedings
ĠSnow
maker
ĠEmploy
ĠSens
Ġguest
ĠReference
Ġkeen
Ġsquares
Ġnoteb
Ġanatomy
orrh
ĠEinstein
Ġattorney
icrob
Ġschedules
Ġinstability
Ġprimitive
ĠBitcoin
June
Ġlogs
Ġsensing
Ġfiled
ĠCould
Ġmanually
Ġinterfaces
Ġmedicinal
spect
Ġappearing
ĠSimply
logging
Ġrip
Ġfitted
places
ĠHamilton
Ġtightly
ĠRule
Ġmicrow
ĠDisorders
ĠANY
ĠSalt
hess
Ġrecognised
March
ede
zes
Ġtet
ĠIoT
Ġperseverance
Ġelastic
Ġtragic
ĠEffective
Ġterr
Ġsuspended
Ġcake
Ġtalented
Ġfrustration
Ġintimate
iage
acteria
.(
Ġstigma
Ġgrate
Ġdocumentary
aval
Ġpocket
esar
Ġscans
Ġrelaxed
ĠUntil
ĠUsed
Ġiv
Ġunlock
cludes
Ġselective
Ġconstructive
vable
ierra
Ġfriendships
Ġastronomers
Ġisot
Ġauthorized
ĠUnderstand
ĠEating
Ġmonaster
LD
Ġwre
SV
offs
Ġexagger
Ġenric
ĠGospel
ĠBeyond
untime
ĠVenus
Mc
ĠBeng
Ġinfrared
Ġliability
Ġflaw
ĊĠĠĠĠĠĠĠĠĠĠĠĠĠĠĠĠĠĠĠĠĠĠĠĠĠĠ
Ġabortion
queue
Ġquoted
Ġhiring
Ġturtles
Ġlady
ĠSounds
Ġalkal
fed
Ġprolif
Ġdeny
Ġcycling
Ġgallons
è¯
Ġnewer
ĠImportance
asers
END
ĠFinn
ĠAnimals
Ġmunicipal
Ġdemanded
ĠMaine
vm
Ġforum
cross
ĠSave
Ġexcer
Ġarmies
itives
Ġsnacks
ĠSquare
pered
decode
]):
ĠArabia
Ġdiesel
Ġsuppliers
cretion
Sol
Layout
Ġdolph
cloud
ourses
Ġsubjective
pler
Ġsculpture
three
ceedings
Doc
otine
Ġbeaches
Ġbaseball
Ġgastrointestinal
arb
Ġseizures
xa
åĲ
artz
Ġproficiency
Ġflee
Dig
typ
Ġqualitative
Ġadminister
Ver
Ġchromosome
edit
Ġants
Ġfilament
Ġgad
Ġdir
Ġlawyers
eff
ĠExplain
Ġlightning
Ġintricacies
chat
Ġideals
ĠHigher
Ġclimb
Ġbund
Ġideology
Ġintestine
pad
Ġtherapists
PH
Ġtheology
Ġsql
ĠConnecticut
ĠĊĠĠĠ
Ġultrasound
Ġhypot
Ġsupernatural
Ġasleep
due
esian
Ġmembranes
Ġassass
Ġpile
Ġcorresponds
processing
iracy
ĠFaith
Ġsquir
ĠExpress
ĠMichel
lug
Ġupward
Ġunre
Ġfestivals
raulic
Init
Found
pulumi
Ġbush
try
Ġsegregation
Ġaxes
imgur
Educ
LL
git
Ġmastery
Ġcompress
Ġbullet
Ġpricing
sa
Ġsalvation
Ġwastewater
gments
Ġwand
Ġcentres
Ġlion
Ġbeverages
ĠAnna
Ġstimulus
Ġacidic
Ġfox
Ġgamma
ĠSaturn
#!/
mg
ĠER
Ġarrow
Ġresonate
encode
Ġsolidarity
Ġcommunal
ductor
mu
empty
Ġparking
Ġscrap
leans
ĠBlu
Ġcursor
ĠLank
ĠStalin
symb
bies
Ġauth
isco
ĠBasin
Ð²
Ġdeter
ĠComplex
Ã¦
Ġcommentary
Ġdye
ĠSkin
Ġpixel
NE
Ġequals
imore
Ġtrails
Ġreliance
Ġtourist
ĠEat
LOG
Ġcredits
ĠString
Ġportrait
Array
Ġcomply
ĠExtension
Ġ'\
Ġcreators
Ġcompetence
Ġsubstrate
Ġfoliage
Title
Ġnationwide
handle
Ġcables
Ġcanvas
ĠGram
small
Ġmitigation
Ġunconscious
Ġlaying
Ġadjustment
Ġharvested
Ġrespectful
Ġtastes
*,
ĊĊĊ
prog
Ġastronomy
antry
Ġ'--
ragon
Ġcervical
CV
Ġcivilian
+'
Feb
Ġbelieving
Ġcrises
Ġlasts
Ġune
Action
Ġanswering
celand
Ġguaranteed
à¥į
Ġblocking
ringe
Ġdirty
ĠConnection
Ġprejudice
Ġsexually
Ġdivorce
Ġtrunk
Ġabnormalities
Dist
Ġphyl
flower
Ġgrazing
Ġgloves
****************
Ġmu
Ġshower
Ġcomparisons
ĠEM
Ġcargo
Ġreconstruction
Ġdeserve
olen
ellers
Ġreplic
Ġassembled
Ġdynasty
Ġ($
ĠOlympic
Ġ'<
%),
ĠSequ
Ġearning
ĠGender
ĠMultiple
gevity
ARE
Qt
opard
Ġstressful
ĠReligion
oustic
Ġcorrupt
TE
ĠSydney
defined
Ġdeficit
Ġnights
itated
ĠFle
Ġfathers
ĠTa
ĠHell
Ġtablet
present
Ġacted
manship
Ġsprou
Ġattraction
ĠIdentity
PATH
Ġbulb
klore
ĠPolice
emon
blue
Ġknock
reading
patient
ĠTR
Ġparish
Ġthinkers
Ġliquids
Ġrash
ĠTODO
weg
Ġremn
Ġpalace
Ġpremium
ĠBarn
evol
Ġformerly
Ġsie
Ġlimb
ĠAlexand
LP
ĠDer
Ġbrighter
ĠInflu
ĠApply
Ġassumes
walk
ĠChair
assertTrue
enium
ĠLic
Ġdecides
Ġretreat
Ġmindset
ĠOklahoma
Ġawesome
Ġkick
Ġminorities
Ġpassenger
Ġimperative
ĠBabylon
ĠJoe
Ġprospective
uru
ĠLoc
Ġpatron
ĠMargaret
Ġscra
Ġrewarding
cards
ĠWin
ĠNile
Ġlucky
Ġpedest
Ġtranscend
ĠHaz
ĠMembers
Ġaesthetics
uto
rians
ĠWalter
Ġstrongest
Ms
Off
liver
ĠNuclear
Ġpreventive
Ġunfortunately
dtype
Ġgerms
Ġrendered
ĠImplement
Ġdeclining
country
limit
ousing
Ġexploit
zi
Ġtense
Ġballoon
Ġspotted
Ġlips
Ġinstalling
Î¼
ĠStructure
ĠProper
ĠDouglas
oporosis
Cross
Ġcoloring
Ġcleaned
upper
Ġjumping
Ġexclusion
Ġgreens
Ġliked
ĠMagazine
coma
Ġfunc
Ġcompositions
ĠChanges
Ġministry
??
oos
Ġcin
estial
ĠSaudi
ĠProduction
ĠGetting
Ġasbestos
Ġconvince
Ġinterpreting
family
ĠThailand
Three
ĠPrograms
Furthermore
ĠHeat
Ġethnicity
Ġslip
ĠBos
Ġreviewing
half
vector
staticmethod
changed
Ġaboard
Ġje
Ġinterdisciplinary
ciously
Being
ZE
Ġpots
Ġdescriptive
Ġscary
sky
Ġleuk
ĠPlanet
ĠBor
Ġdefensive
ĠFlore
April
Cong
Ġunderstands
Ġaccidentally
äº
ĠParks
Â½
Ãł
ĠFoot
Ġproducer
Ġfright
ouble
ĠRot
riors
Ġenroll
ĠLev
Ġreflective
agonal
ĠNapole
Ġinnocent
ĠPharm
edience
ĠDead
Ġblade
anga
ĠExperiment
hn
ĠSH
Ġknife
Ġsanitation
ĠDatabase
Ġmeticul
Ġfifteen
ĠOk
ansk
Ġracing
Ġsparked
ĠBrig
Ġdurable
ĠChannel
ĠEye
Ġreflex
Ġconverting
fi
Ġpound
"].
ĠĠĠĠĠĠĠĠĠĠ
ĠMRI
Ġunderneath
azines
ĠFrederick
raits
Ġceremonies
acterial
lywood
Ġsocket
Ġadhere
Ġperenn
Ġperforms
Ġgasoline
ĠOak
Ġbackup
Ġmotors
Ġauthenticity
usage
ĠApache
Ġprohibited
Ġaccompanying
Ġdorm
Perhaps
Ġswift
ĠPrepare
Ġdawn
Ġweed
ĠOri
Ġsmartphones
Ġadequately
Ġpadding
video
Sept
ĠBishop
rames
Additionally
isl
Ġhired
Think
eches
Ġsurprisingly
ĠRF
çĶ
Ġembarr
Ġredirect
othy
estones
Ġpays
cop
Ġreuse
ĠLive
ĠSS
ĠBrand
Ġinfest
ĠEmergency
ĠPhoto
Ġsimilarity
Ġ----------
imeters
Ġsubmar
hum
Ġflip
application
oni
theta
ito
changing
Ġdelays
Ġurinary
ĠRegister
vec
iri
agh
ĠEditor
Ġsins
Ġreefs
aten
idated
Ġinferior
heads
ĠWeight
Ġviolation
ocene
Ġdepths
rer
je
Consider
Ġexchanges
rod
Ġdeforestation
ĠColomb
Port
ĊĠĠĠĠĠĠĠĠĠĠĠĠĠĠĠĠĠĠĠĠĠĠĠĠĠĠĠĠ
ĠSafe
Dav
wed
Ġmentions
Ġcelebrations
existing
Ġveterans
ĠSolomon
iquity
culosis
Ġundoubtedly
Ġterminology
ulus
Ñı
Ġensl
ĠLO
Ġdischarg
Ġcooperative
Ġanticipated
Ġboiling
ĠDict
Ġinjust
Ġhobby
RT
Ġoun
ĠRange
axon
azy
questions
Ġtricks
ĠGM
ĠBron
ĠMcG
Ġmerge
rule
Ġrefuse
ĠSolutions
Ġprevailing
Ġappar
ĠColumn
Oh
Ġtmp
ĠDakota
Aust
Ġpi
Ġcommissioned
Ġancestral
isure
ĠTher
ĠBiological
track
Work
Ġdaughters
ĠDental
pine
Ġspill
Ġfarther
IVE
Ġcivic
ĠVisit
Ġdeposit
Ġstrokes
Ġshr
Ġgoverned
ĠÙ
Thanks
Ġdur
othic
Ġpasswords
aturated
aders
Ġbroadly
ĠManufact
Ġsweat
Ġacceleration
Ġclimates
Ġsimplicity
Ste
Ġapost
Ġcrystall
irts
Ġpractically
Exper
Ġtenure
GP
ĠMun
Ġtextbooks
ĠCitiz
Ġdeviation
ĠToo
ctica
Ġcognition
ĠĠĠĠĠĠĠĠĠĠĠ
ĠRA
Ġstresses
Ġimpart
Ġbutterflies
Ġseism
Ġadject
Ġherbal
ĠExplore
Ġcannabis
Ġrighteous
Ġpilgrim
ĠAntarctic
prom
Ġtrait
ĠWorkshe
čĊčĊč
Ġattendance
Ġneeding
Ġrebellion
Ġtheatre
Ġcoh
classmethod
ijuana
eprint
ĠMarshall
ĠStage
ĠAnnual
Ġcubic
Ġhay
ĠAmericas
Ġvascular
Ġrif
ĊĠĠĠĠĠĠĠĠĠĠĠĠĠĠĠĠĠĠĠĠĠĠ
Ġpermissions
ĠDry
ĠDI
elsh
erion
Ġgeological
ĠÂ±
ĠExploration
ĠBrother
ĠActive
Ġprospects
social
Ġdecorative
lie
ĠKu
Ġdisproportion
ĠUnless
ĠIntrodu
Ġexperimentation
thony
Ġweakened
Ġrecess
Ġnonprofit
ĠManual
ĠTechnical
Ġtrillion
properties
Ġfunny
ĠBrun
Control
regn
ĠComprehens
Ġsmartphone
Ã£o
Ġelephant
Ġclot
standard
Ġnasal
Ġoverseas
Ġtrafficking
nosis
ravel
Ġgrape
ucket
Ġhosting
Ġflights
psych
ĠLoad
Ġdisruption
Ġtricky
Ġtomato
cio
DNA
Ġlag
ĠHug
ĠWolf
Ġblending
Ġdetecting
Ġdisciples
Ġsurf
Ġbelonged
into
boxes
Ġslice
ĠCompet
ĠArchitecture
auses
umen
Ġlaptop
ESCO
ocker
Ġtonnes
ĠAcademic
ĠEnh
Ġthou
ĠPrice
iii
ĠDrawing
should
Ġaver
ĠPeninsula
Ġdiscre
Ġcruc
arring
Ġauthentication
Ġwhereby
Ġrecognizes
Ġcalculating
åħ
Ġarguing
Environment
Ġscanning
oria
ĠLuke
Ġtaxon
ĠPeru
lit
Ġsketch
ĠGab
Ġæ
Ġdots
Ġquiz
ĠPuerto
Ġsomebody
Ġflora
VA
Ġprotections
Ġstrips
Ġdisadvantages
Willi
ĠHTTP
Ġmultiply
birds
tol
ingham
ĠEver
ĠSwiss
ĠUniversal
threatening
Ġathe
Ġouts
ĠVerm
ĠOd
Ġdealt
sd
ĠPolitics
aho
ĠDra
Ġblu
ĠWeather
ĠPow
ĠGib
iarism
Ġfeminist
ĠFortunately
Ġfoam
yg
Ġdeclare
STR
nas
Ġdarker
ĠMulti
Sk
Ġimplicit
Ġdetermin
Look
Ġantim
Ġelephants
async
Ġprompted
ptical
ubric
brate
:%
Ġpetition
Ġresonance
ĠCEO
Ġpropaganda
scope
isive
ĠRO
Ġcoach
Ġhollow
Ġfractions
Î»
setup
Ġgestures
Ġglobalization
University
Ġeasiest
Ġlifting
Ġrush
Tim
ĠQueens
Ġcomplaints
Ġhumanitarian
oned
Ġwrapped
rost
ĠTs
ĠStop
Ġaquarium
Ġlikewise
ĠPsychiat
inis
Ġthrust
ĠMonitoring
Ġhumble
Ġimports
Ġbiop
Ġleverage
Ġutils
ĠTruth
Ġkilomet
ĠBed
oping
Ġramp
omorph
Ġcrude
rades
Ġbrushing
ĠOtherwise
Ġresemble
Ġgri
birth
iti
ĠAllied
region
Ġrecipient
choice
Cs
missions
Ġspecimen
Ġdistributions
erget
Label
big
tex
ouns
Contin
Ġpixels
Ġfracture
ĠSA
ĠQuebec
Old
Ġexhibited
Ġlaughter
ĠTob
Ġstd
Ġsyntax
ĠÂ»
Ġbass
ĠManager
Ġinstructors
wal
Ġthrowing
ophil
Ġdisturbances
ĠOrleans
ĠSudan
uced
Ġtimeline
inos
Ġdiagrams
"'
}\
vic
ighed
Ġcontest
ĠCov
Ġdeaf
Run
Ġthir
paths
Ġbreastfeeding
ĠNonetheless
final
Ġsulfur
itably
Ġreceiver
Ġsecuring
ĠServer
Men
ista
Ġencrypt
Ġbucket
Ġsouls
Ġtestimony
ĠiP
Ġpleasant
Stand
ĠTell
Global
Ġjazz
Ġmatched
Ġembraced
Ġexports
Ġbloodstream
wareness
Ġupl
Ġmemorial
Ġbadly
ĠCC
Ġshortage
sea
Ġparadigm
paper
plants
Ġbend
Ġtoes
Ġcounted
Ġviolations
ĠDomin
Sch
Ġprize
isy
Ġviewpoints
ĠFederation
Ġenerget
ĠVR
Equ
mac
ĠIceland
Ġbackward
Ġmuscular
Ġreactor
ĠNotes
ĠNev
Ġpear
ĠBand
Therefore
Ġevap
Ġtowers
Ġaspirations
Related
ĠWang
Ġoutlines
condition
Ġpressed
European
-----
amon
Ġrestriction
ANT
ĠNelson
Ġscarce
Ġtune
Ġbelievers
ĠArgentina
Graph
ĠProblems
Ġplanetary
ĠRecords
ĠâĨĳ
ĠCompanies
Ġmultifaceted
ju
Ġterrestrial
odia
Ġpeaks
ĠDelhi
Ġsharks
ĠAlber
Ġcoli
phase
ĠHoward
frequency
Ġlabs
Ġcylinder
Ġmimic
RES
Ġcorrosion
Ġfocal
opa
Ġcredibility
Ġenterprises
Ġspectacular
Ġboot
Ġcontaminants
ĠPTSD
omnia
ĠProgress
Ġstewardship
ervers
Ġseafood
School
ĠHouston
ĠKy
Ġirritation
ĠNumPy
Ġutilities
Ġrepetitive
Ġheadquarters
Ġimply
historic
Organ
ĠDownload
story
ĠVI
ĠĠĠĠĠĠĠĠĠ
Ġmaneu
generate
Ġpronunciation
apes
expression
ĠRat
Ġcigarettes
Ġmultiplication
ĠFast
ugs
Ġheights
Ġlogin
ĠIng
ĠProceedings
Ġdinosaurs
July
agic
heumat
/.
rl
Ġacre
ĠConfig
think
ĠFramework
('\
Ġodor
illary
kyo
Ġdonor
errors
Ġhostile
olics
Ġ$$
August
Ġiod
azed
Ġtruths
nutrition
ulph
Ġaffection
Ġmonopol
associ
Ġpayload
Ġrounded
Ġdragon
Sl
Ġtheor
atar
ĠPun
ĠChristopher
Ġarchive
REE
ĠRace
Ġdepressed
ĠHud
Ġmarijuana
Ġcoconut
falls
itudinal
dm
Ġconcludes
period
Their
btn
Ġlocked
Ġlistened
ĠStrong
Ġturtle
ĠFinland
oup
Ġarche
Women
Ġimagin
Ġceiling
Ġintrinsic
Ġmethodologies
Ġrefugee
"?
ĠKa
ĠCurriculum
ĠMontana
ĠEmbracing
roit
cession
Ġcasting
Ġincon
edges
udge
clock
ordon
tox
Ġvisitor
dose
amboo
Ġpist
igraph
Ġlimestone
Ġhosted
eur
apply
Ġplague
Ġunpredict
Ġreper
Ġ(-
Ġawa
document
beit
Ġargparse
Bre
Ġtasty
Ġdownstream
ĠBull
Ġpulmonary
Ġnuances
timestamp
iw
Ġwore
gage
ĠPed
Integer
Ġshrubs
cellular
ĠACT
ĠMember
ibles
Ġclause
utable
Course
ĠRow
Ġdecorated
pk
ĠSad
achine
Ġrunoff
Ġculmin
ulous
Ġserum
Ġveterinarian
ithmetic
price
brates
Ġsimplest
Ġflame
Ġshark
Ġdisinf
Ġactor
Ġincub
Ġtermed
Ġpersistence
Ġic
stones
ĠAlcohol
aceous
driver
Ġrepository
ĠCoord
Ġrecreation
Ġyards
ĠChem
Ġvein
Ġpm
ĠIBM
ĠDefault
Ġpersecution
Ġlearns
ĠOccup
nx
ĠCatal
ĠMR
Ġdiffering
Context
odont
Ġcryptocur
Ġheavier
ĠTro
ĠPubl
Ġtouched
ĠConstruction
Modern
Ġsubtract
erred
Ġlamp
Ġbiography
Ġseventh
workers
Ġconstell
Result
beta
ĠTu
ĠHispanic
ĠLang
ĠInitial
POST
Ġknees
Ġsooner
Ġoccupy
Ġsuccesses
ĠStew
Ġvegg
Ġturbines
resol
ĠApplying
ĠPortugal
phy
Ġdams
Ġware
Ġvacation
Ġ'%
Ġfeeds
because
Ġpolitically
modern
ĠDoctor
Ġpulp
Ġfisheries
?!
Ġexpon
Rad
Ġpools
Output
serv
Ġinappropriate
ĠApollo
Ġdisplaced
Ġenvision
Ġhighway
enic
Ġreasonably
ĠProgramme
Ġfiring
Ġfungal
Ġaccelerate
Ġempowerment
ographics
Ġlongevity
ĠHopkins
Ġcarriers
Ġsigning
Ġimmigrant
font
ivated
pleted
Ġpsychologists
Ang
Ġdip
Ġaviation
Ġneedles
Ġreinforced
Ġnoqa
Ġearnings
Ġinformative
Ġub
Ġinternationally
flag
lasting
Ġtended
tuple
Ġelimination
ĠMalaysia
mont
ĠABC
loader
ĠEthiopia
Ġbru
Ġell
scient
ĠThor
ĠForum
Ġexcel
Total
Ġproactive
ĠHyper
Ġcompassionate
ogly
ĠFestival
break
Ġpave
utenant
Enter
mitt
ĠScripture
Ġsealed
Ġenrolled
-%
Ġtide
Ġboil
ĠGuinea
Ġcommercially
ĠTechnologies
uddenly
ĠRon
sheet
Ġanchor
ĠEC
ĠDur
IH
Ġcourtesy
Ġmistaken
Ġsurrender
ĠPent
Ġairport
DT
timeout
ĠShel
Ġacquiring
ĠAB
allel
Ġfractures
Ġerected
ĠPoor
ĠCrime
ĠNear
Ġmarry
Ġdepicting
orations
ĠMcK
oof
construction
ĠEric
ĠAnat
adic
pletion
Ġcens
Ġfreeze
Ġcolonization
Ġmagazines
Update
Ġantibody
Ġphosphorus
UI
Ġhook
ĠCas
Ġfinite
Ġcompromised
Ġreferen
headed
Ġproportions
organic
heat
Brit
expensive
Ġhect
units
ĠChron
ĠTrail
sections
ediatrics
Ġmonuments
gex
Ġspawn
negative
academia
fc
Ġasteroid
watch
Ġethn
ĠEvaluation
Ġcivilians
ijing
Ġanth
Ġsnipp
Phone
Ġinheritance
ĠIF
ĠSeattle
Ġrhythms
Ġpurchases
Ġdefence
Ġinviting
Ġdetector
Ġedible
Ġsaves
Ġdeclaration
Ġaerial
speaking
ĠVision
Ġexterior
Ġcleans
ĠCPU
thens
Ġsisters
Ġnesting
ĠPick
Ġmanuscripts
otor
Ġ[[
Ġamphib
Ġcontinents
estyles
Ġverbs
ĠStrategy
Ġsubset
Ġcracks
Ġdestroying
quer
Ġfrontier
Ġcritique
ĠLikewise
Ġbubbles
Command
idating
Ġprosec
oi
Ġsticky
ispens
hetical
Ġfeast
storage
itat
Ġdifferentiation
ference
Ġautoimmune
ancers
respons
Ġbites
ĠPalestinian
################################################################
ĠAgainst
ixty
astype
ĠExperience
ĠRobinson
Ġwelding
ĠIsaac
itol
umble
Ġempowering
:.
Parent
Ġincoming
Ġschema
ĠExchange
Ġportfolio
Ġactivism
Ġposterior
Ġhanded
ĠSummary
æĸ
Ġgates
Ġswitches
Ġathlete
ĠAndroid
ĠÎ¼
ĠAntarctica
ĠâĨĴ
Ġindirectly
Ġanemia
ĠBirth
metrics
ĠSN
Ġ"--
Ġcorrelated
âĢ²
Ġfaithful
Physical
olithic
asi
Ġmeg
Ġenjoyment
Ġtokens
Ġpunish
Ġmicroscopic
Pop
Ġpodcast
Ã©s
osexual
Ġrevelation
Ġvoted
ĠCyber
dra
Ġdeveloper
Ġregim
Ġdeserves
ĠSusan
ĠCB
aby
ĠClinic
olis
Ġcsv
Ġhed
pleasant
}}
ulatory
Ġinterplay
around
Ġannoy
Ã¡n
Pos
ĠFif
Ġremainder
Ð¼
ULL
Ġwillingness
ĠBart
Question
Ġjustified
scores
(['
bus
ĠAlg
Content
fires
Ġexh
Ġrespecting
Ġcoordinated
Enc
ĠExam
Ġastronauts
Such
Ġnov
Ġtechnically
idis
Ġconvincing
thirds
Ġ"__
../
rimental
otte
ĠBaltimore
ĠMonitor
Ġspinning
odus
Ġshowcasing
reset
Ġcompressed
Ġinvalid
Ġcreator
ĠPicture
ĠMort
years
Ġspreads
criptions
Ġreinforcing
Pass
vest
Ġalliance
Ġendurance
Ġlovely
ĠFoods
Ġencouragement
ĠBelgium
ateur
Ġtrajectory
Examples
Ġdifferentiate
Ġpetroleum
Ġcandy
hill
Ġsickness
elli
Ġproving
Ġhappier
ĠApplied
ollen
member
ĠML
Ġcommitments
Ġtravelers
Arch
Ġincomplete
Ġfastest
tar
Ġsuccession
ĠIndividuals
Ġwoven
Ġvariance
Ġimpose
Ġemitted
Ġgem
aky
Ġdecimal
helial
actly
ĠVacc
ĠCommunications
Ġschizophrenia
Ġescaped
Ġdissertation
Ġbacks
Ġspirituality
ĠMoz
ribing
Exp
ĠPopular
environment
ĠConversely
ELECT
ĠRoberts
Ġvet
Ġhex
Ġfinishing
ĠChallenge
Ġpainter
Ġling
Ġfluoride
Ġaccounted
Ġbronze
ĠDeg
opause
ĠLen
Ġdominance
Article
cuda
ĠSin
Ġpositioned
without
Ġ{}".
before
Ġgotten
Ġrecordings
ratulations
Ġcontinental
Ġcollision
Ġbunch
arin
Ġcalculator
Ġassisted
ĠIR
__,
Ġimbalance
semin
erers
Resource
Ġchord
rett
ĠLam
Ġunrest
Ġwithstand
ĠImportant
Ġconserve
ucing
comed
Ġsket
Ġmaritime
Ġpositioning
ĠVarious
Ġthreaten
rene
bola
Ġuncovered
ĠTun
Ġgraduates
Ġconsulting
Ġreminds
Ġmerit
Ġparallels
Additional
variable
ĠEngaging
October
_(
Ġelegant
Ġlad
ĠSierra
ĠUSB
Ġlandmark
wick
wikipedia
Ġcolleague
Ġpromptly
Ġruins
rev
Ġarbitrary
program
ĠBeaut
Service
Ġgrateful
filled
Ġchi
ĠStyle
Ġ((
ĠEra
ycle
Ġvolcano
rob
resolution
ĠVeget
ĠCris
Ġ"<
ĠExc
Micro
Ġupgrad
brush
Ġimmersive
ĠCognitive
ĠBenny
Ġbackyard
Ġconverts
ĠMoney
Ġdetrimental
Ġvinegar
Ġarose
Ġauditory
Ġbutterfly
Ġsymbolism
ĠOperation
Filter
à¤¾
Ġopponent
Ġapt
Ġroutinely
Ġnests
Ġmethyl
anical
Produ
NOT
andal
arking
ĠPul
Ġloops
Ġwitnesses
Ġbid
Ġprovincial
Ġpoles
Ġparagraphs
Unlike
Ġexperimenting
unique
mir
ĠInstitution
Ġinnate
ĠRegardless
ĠInput
pox
South
Ġincorporates
TYPE
oro
Ġcoefficient
Ġmedi
Ġdisparate
Ġtheft
Ġawards
Ġprophet
Ġlibert
umm
Ġremembering
ĠIM
ĠIg
Ġairplane
ĠPale
ĠBreak
Ġbasketball
Ġexclude
annah
Ġremot
Ġliberation
ĠObservatory
ĠLith
ĠConstant
>,
Ġvisc
Ġindispens
Ġmushrooms
]+
lyn
Ġunrelated
Ġquarters
ĠContinue
Ġwavelength
ĠLate
Ġlegends
media
Ġpsychiatric
Ġlawsu
Ġbonding
uba
ĠReligious
Ġcelestial
otics
Ġthunder
Ġpopulated
icrobial
UB
Ġhurd
Ġresin
lr
ÃŃa
Ġaccumulate
Ġqueue
Ġintentional
ĠBatt
ĠPalace
Ġcatastrophic
Serial
ĠHPV
Ġabbre
ilage
Ġrisky
Ġsafeguard
Ġfacilitates
frac
Ġfasting
ĠSteve
ĠBY
Ġmirrors
utation
hyth
ĠColumbus
Press
Ġbent
chy
Ġdressed
idency
ĠAnthony
Ġemergencies
ocrine
Ġspokes
ĠPerm
ĠHarris
pick
Ġtranslations
Ġtones
ploys
Ġwip
Ġnm
ĠHyp
Ġrestoring
Ġaccumulated
erican
Ġaccomplishments
ĠAlternatively
ĠWelsh
utt
Ġspecifications
dit
ĠBurn
Ġbeautifully
}"
isted
Ġsuits
ĠHE
memory
Ġaggregate
ĠMix
Ġcommodity
Ġgrapes
ĠInsp
Ġbacked
Ġtraders
Ġpesticide
oda
null
Ġrolled
Ġslopes
ÙĨ
Ġestrogen
Ġgambling
Function
ĠDelta
dirname
Ġremoves
Ġtraps
Ġservants
Ġmigrants
Ġromance
ĠSky
().__
Ġticks
Ġmarc
Ġposters
Ġentrepreneur
oglobin
anskrit
Ġjournalists
inators
Ġpour
Ġfulfilling
Ġunstable
Ġretro
Ġinitiate
ĠSah
Ġmakeup
Ġgrasses
ĠVienna
Ġminus
ĠComplete
Ġpassions
ĠLetters
inical
Ġgloss
ĠInvestig
Ġdelightful
Ġprojection
ĠAfricans
ivo
occup
æķ°
Ġleisure
artha
lad
ĠDanish
Ġundergoing
Ġcoalition
buffer
ĠEld
Ġqualify
Ġtransistors
è¿
Gs
Å«
ĠSent
Ġads
__)
Ġteamwork
ĠDesert
Ġgarbage
ĠForces
Ġparenting
Ġquestioned
ĠEnsure
las
binary
ĠPle
}'
ĠKid
Ġlithium
Ġfeared
Ġspanning
inctions
ochemistry
PER
ructions
Ġchromosomes
cpu
Ġhitting
Ġdefinitive
Ġdub
Ġformulas
Ġtimeless
ĠIncreased
EXT
å®
uffle
ĠPsychological
osaic
Ġequip
Ġimproper
ĠAlmost
Ġaccessing
ĠCommunities
icus
Contact
ĠPand
ĠThinking
Ġkindergarten
ĠInnovation
Ġvoc
Ġrotating
compat
Ġobey
__()
Ġphysiology
swith
Ġultra
.**
.[
NC
Ġ'_
ĠNepal
Ġwedding
Ġgrinding
Ġamend
Ġbrack
ĠKeeping
osterone
Ġpdf
Ġchickens
Ġyogurt
summary
Ġsteadily
Jew
Ġcomprising
Ġcongress
icularly
Ġsecretary
Ġgenerous
Ġgolf
optional
Ġmate
environ
isers
Ġpolyn
Ġrated
Ġaccountable
Ġvulnerabilities
raviolet
NASA
Ġtours
hex
Ġamendment
ĠIL
ockey
Ġhelic
ĠBerg
Ġstudio
Ġeruption
Ġfabrics
Ġtran
Ġerupt
ĠEngineers
ĠVar
./
Ġrobotic
correct
ĠBrief
Ġinvestigators
ĠSW
ĠDh
Ġimplants
Ġrepetition
astical
ĠLeadership
ĠXML
Ġconsequently
Ġpreceding
liness
Ġ"-
Ġasyn
Ġunh
Ġuphold
Ġturbine
Ġyesterday
Ġteasp
ĠArkansas
System
Ġscaling
Ġinherently
ĠReports
Ġsprings
Ñĭ
published
Ġstance
ĠFab
orting
Ġrealities
prising
Ġrealism
Ġresponsive
ĠOrigins
Ġtwin
Ġtranslates
Ġcomprise
Ġworm
anyon
Ġperfection
Ġreviewers
Ġepile
Ġhurricane
ĠTar
ĠAddress
Ġdisplaying
Ġforgiveness
many
ilk
emade
)+
Ġtin
ĠSeven
safe
Ġaccelerated
Ġscared
Ġeditorial
Ġwrist
Ġunpleasant
Core
Ġesoph
ĠNAT
Ġapparatus
ĠGate
dup
pix
ctory
ĠFROM
ĠChris
heim
Description
ĠRio
worms
AIDS
Earth
Ġdetox
Ġcharter
Ġwelcomed
Ġcavities
Ġsimulate
Ġarchives
ĠCrown
Ġimaginary
php
ĠPic
ĠDeb
------------------------------------------------
Ġadorn
Ġancestor
parameter
Ġmotivations
Ġnanop
Ġrouter
TT
Ġpredicting
Ġrobotics
GI
Link
ĠLaws
Ġkills
ĠCampaign
Ġproves
Ġfiltered
Ġscripts
wegian
ecting
ĠMinor
package
nings
Ġrelay
ĠDonald
Ġket
planes
although
Ġrevenues
ecess
Ġcorrespondence
Ġpizza
Ġorche
Ġhydraulic
SF
Ġboss
Ġdefinite
Ġdisturbance
worthy
Ġrefining
Ġcabin
built
Ġsprink
ĠCommonwealth
ados
alled
Ġupright
startswith
Ġhunters
Ġdeliberately
Ġcompatibility
ĠPlate
Ġunderest
ĠMotor
ĠEcology
VE
Ġplum
Ġuterus
ĠKarl
ĠSymbol
Ġsovereign
Ġbother
Ġfiltering
Ġgrip
Ġendemic
Ġreplication
single
Ġprioritize
Ġleveraging
liter
Ġmarble
Ġkilometres
erable
Definition
Ġfibre
ĠGallery
ĠAwareness
ĠCM
Ġranked
FAULT
ĠShah
ĠProducts
Ġnotions
ĠWorkers
%).
ĠFu
Ġavenues
Ġnaked
Ġspiders
Ġpertaining
Ġdevotion
Ġsummit
Ġsculptures
Ġarriving
September
ĠCover
phan
ĠChronic
ĠHarbor
ĠUpdate
ricula
generative
Ġaiming
transmit
ĠSide
Ġmounting
ĠTarget
ertility
Ġmerchant
ĠPlato
Ġluxury
exception
ĠEverything
Ġathletic
Vari
Ġcylind
Ġvalves
ĠAlfred
Build
Ġfinancially
Ġinjected
Ġindispensable
ituted
ĠMercury
Ġcoronary
download
ayan
Ġinventions
Ġfortune
icient
ĠArtificial
Ġì
Ġcentr
Ġpsychologist
Ġradicals
kn
Ġrope
ĠTransportation
Ġonions
ĠOral
ĠInternal
Ġpilots
ĠAvenue
Ġclinicians
å¤
stick
Ġparasite
Ġciting
Ġdeposited
Ġfloors
ĠNam
Block
plication
ĠClinton
ÏĤ
colors
Ġethanol
degree
Ġsmiled
White
ĠLA
Ġpancreat
Ġinexpensive
ĠYang
Ġstrengthens
Ġlifespan
Ġenergies
oic
Ġdigits
Ġvaccinated
Instead
Ġgenius
Ġnails
Ġclinics
ĠSuppose
ä½
Ġthirst
carbon
Ġcarrots
Ġinhabited
Ġhormonal
ĠAth
Ġunittest
mun
amount
ĠPrinceton
licted
ĠHudson
mess
Ġsyrup
ĠAlan
Ġunsure
Ġpic
Ġsystematically
Window
aic
Ġengineered
ĠTeach
Ġstepping
ĠTower
ussels
Ġdehydration
Ġmotifs
cover
Ġlightly
ĠBaptist
Ġnail
Ġcontag
addr
validate
great
Ġattent
čĊčĊ
Ġendeavors
ĠSilver
ĠTel
Ġingen
Ġrabbits
ĠDescription
Ġwinner
Ġbipolar
Ġloses
OH
Ġgrie
Ġadrenal
araoh
Ġblades
ione
Ġnevertheless
Ġrenal
Almost
ĠIllust
Ġobscure
ogeneous
Ġprobable
Ġpursued
Ġcoherent
ĠPriv
ÏĢ
ĠArticles
ĠTip
ĠRailroad
Ġlubric
Bs
ĠSubst
Ġactivist
Ġproportional
Ġcigarette
ĠDiversity
pection
Ġpottery
Ġhorror
ĠSubject
Ġcleared
Ġneglected
Design
Ġnationalism
hou
Published
Ġward
Ġworkout
Ġrepeating
Ġconfidently
Ġdeceased
ften
ĠMorgan
Ã¼r
ean
ĠLanka
Prim
Ġsewage
Ġcompetent
ĠJuan
Ġcorporation
Ġ[-
Ġevaluations
ĠJos
Ġbelly
Ġsusceptibility
Ġkeywords
ivial
Ïĥ
nu
åŃ
Import
Ġblooms
ĠCatholics
Right
Ġenacted
Ġhinder
Ġswing
Ġcommanded
Space
Ġdeposition
ĠAle
Ġcommittees
Ġempowers
Ġratings
Ġlatitude
awareness
Ġenlarg
Ġmatrices
Ġintentionally
Ġmascul
Ġenergetic
Ġconting
China
Ġelic
Ġshadows
Ġartillery
grass
Ġshaft
Ġplayground
ĠLiteracy
ĠProcessing
omething
ĠNevada
asury
imag
Ġexposures
rb
NG
ĠZone
ĠAthens
Ġgi
Ġqueries
eda
ĠUNESCO
Ġrecognise
Ġbarg
ĠYale
gel
Ġsensations
ĠMorris
ĠTitan
rise
Ġshades
Ġmarrow
anning
Ġdownward
Ġbrainstorm
ĠÅ
Ġprojections
ĠOverall
Ġcredentials
NET
Ġcautious
DD
every
Ġhandles
ĠSetting
Ġportrayed
ĠJohann
percent
Ġsadness
cked
represented
Ġdecentral
ĠStreng
pathetic
Ġdiary
Ġdiabetic
Ġdropping
Ġfertilizers
ĠRandom
ĠElements
Ġblur
kernel
ĠBry
ĠEgg
Ġcozy
ĠAdult
Ġurge
Ġworkflow
blog
Ġregimes
Ġsaliva
blank
Ġrichness
Ġgallery
čĊĠĠĠĠĠĠĠĠ
Ġspiral
Ġfrustrated
Mal
Ġtradem
ĠCanal
ĠProvince
leaf
Ġlaboratories
onian
Manager
phen
âķ
ĠBeth
ĊĠĠĠĠĠĠĠĠĠĠĠĠĠĠĠĠĠĠĠĠĠĠĠĠĠĠĠĠĠĠĠĠĠĠĠĠĠĠĠ
Ġglaciers
VAL
Ġmidst
Ġdigging
âĢ¦âĢ¦
reference
Ġcad
quant
Ġresponds
secret
Ġpork
Ġneglig
often
Ġquicker
topic
cht
aphy
bsite
Ġhtml
Ġignorance
bearing
Ġmarsh
ĠActs
efficients
ĠJourney
ĠJosh
itous
alion
ĠStatus
ĠDim
Ġbuzz
Ġrectangular
Ġfolklore
Ġverification
LY
ĠClear
electric
ĠNag
intend
Ġguy
general
Ġfence
Ġbaked
ĠEgyptians
Ġmartial
ĠGeographic
Ġjurisdict
Ġceramic
ĠCBD
exc
Ġhopefully
bourne
Ġoutward
Ġhadn
Ġcoil
ĠCreation
ĠBeijing
Ġmenstrual
Ġguys
Ġrepairs
Ġdelving
Ġdiscrete
Ġflew
Ġlimitation
ĠCrow
ĠMB
Ġbehaviours
ĠDynasty
ensation
owned
ĠNotice
ĠIdentifying
ĠDream
average
pent
ainted
ĠHR
Ġindul
Ġtransgender
Ġsklearn
Ġdiminished
between
Ġstats
Ġglad
bey
ĠPrivate
Ġjournalist
Ġfrogs
__":
Phot
Ġcurved
Ġphil
ĠPhoen
Ġchambers
rences
Ġsouthwest
Ġlegendary
Ġworries
Ġstimulating
icion
hicle
iche
resources
ĠPhill
Ġabolition
research
Ġobserver
ĠOrganic
North
ĠCanyon
ĠEthics
ĠCollins
fuel
Ġbeads
ractice
Ġseniors
Ġdeficiencies
á¸
Ġlively
ĠIl
ĠPages
Ask
ĠOfficer
Tree
ĠMol
Ġcontributors
Ġsearches
Ġoffshore
extract
ĠIndependent
Ġmassage
trained
ccoli
ĠLaur
mesh
tk
leveland
ĠAntonio
ĠMaj
Ġmonitors
Ġexpenditure
lavery
aunting
ĠDial
ĠDiscovery
ĠByzantine
Ġbloss
ĠReform
Ġ%(
ĊĠĠĠĠĠĠĠĠĠĠĠĠĠĠĠĠĠĠĠĠĠĠĠĠĠĠĠĠĠĠ
voc
Ġexpectation
Ġveterinary
Ġbicycle
Cam
events
Ġaston
Ġtranscription
Ġdeliberate
Ġpredictive
Ġsentiment
pend
ĠISO
Ġbubble
essert
Ġevid
Ġsubprocess
Ġbeside
Ġlid
Ġlap
creas
Ġdrove
ĠUg
Ġdominate
Ġsalad
Ġprinters
adow
ĠLeban
Ġcatching
poly
Ġmating
Ġwholes
ĠWat
Ġblast
Ġfascinated
Ġbrightness
IOS
heit
Ġfonts
Ġassured
ĠCele
authorized
ĠRecovery
ĠOperations
pb
Ġexpectancy
ĠPO
Ġservant
Ġpaints
ĠGoals
ĠHerm
Ġpossessed
Logger
Ġnorthwest
ĠPas
ĠZion
Ġanticipate
Ġprestigious
overty
Within
ĠCauses
ãĢĤ
ĠEsc
Ġactivate
Govern
ĠBorn
ĠTokyo
Ġdisadvantage
wear
Ġfame
International
uci
Ġrotate
KS
growing
town
Ġcarbohydrate
ĠWalker
ĠMaterial
ĠInstitutes
Ġattacking
Ġelders
Ġproliferation
js
ĠRecomm
Ġnoticeable
Ġeg
Ġvoyage
ĠHey
Ġdesktop
Ġankle
ĠTow
ĠRussell
joint
Ġlav
..."
Ġoutlets
Ġoxidation
Ġsage
Ġ"%
Ġconquest
ĠLiver
eterm
]*
Ġdwarf
Ġaccred
Ġgrading
Ġrecurring
HC
Ġaux
Ġlegislature
Ġyarn
acious
Ġgenocide
___
liance
Ġsatisfying
ĠAbsol
Â²
clipse
opathic
ĠSize
techn
rimp
Ġtolerate
ommy
ardi
ĠClassroom
ĠGhana
ĠStra
ĊĠĠĠĠĠĠĠĠĠĠĠĠĠĠĠĠĠĠĠĠĠĠĠĠĠĠĠĠĠ
Mac
ĠEve
Ġhumid
Exec
amy
Ġfacets
ENSE
'\
dates
Ġsponsored
Ġray
Ġderive
bath
special
ĠSurgery
Write
Ġinstitute
attribute
Bey
Ġhipp
ouncing
Ġpredecess
Conf
ilis
Ġordering
ĠBear
December
Ġphotosynthesis
intage
DM
Ġshrink
Ġharmless
âĢĿ).
Ġapartment
nels
}.
Ġot
ĠEpid
Ġideological
htaking
Ġmigrate
Ġmonkeys
Ġbuses
Ġpier
collect
Ġdiplomatic
Ġtsun
istence
Ġanomal
Ġprivileges
Desc
paste
Ġstretched
:\
UST
atson
olon
Ġdemol
letion
coholic
Ġnicotine
FIG
otonin
pless
Ġshine
authors
ĠPlot
Ġcustomized
vings
Ġdrastically
positions
ĠAuto
Ġseamlessly
ĠOliver
Peer
Ġstrangers
Ġfilt
Ġalmond
ĠCongo
'{
ĠBE
Ġdisable
repr
Low
Ġemploys
Ġrape
Ġtransforms
Ġcapacities
Ġmandate
otions
Ġeluc
extend
ĠFinal
Ġpeppers
Ġseedlings
Ġpublishers
Ġstub
Ġboom
Ġjar
othermal
United
Ġreconciliation
ĠMolecular
cert
Ġconceived
Ġmanure
Ġloos
Ġmercy
ibling
ĠNorman
Information
Ġdurability
FILE
Ġdeeds
syn
Ġminiature
Ġcfg
Ð´
enum
Ġterrorism
Ġshout
ĠLyn
ĠPhotos
ĠAddressing
Ġranking
Ġcybersecurity
Ġrealization
Ġapnea
Ġmargins
Ġreversed
enable
Ġretina
Ġcurricula
Ġguarantees
Ġnost
ĠET
Ġgravel
Ġcomplaint
Ġrocky
Ġsinus
Ġgraduated
Ġsemicon
Ġparadox
Ġtiles
Ġboring
ĠGalile
ĠAustin
Cle
brain
Ġcemetery
Ġech
**.
Ġuranium
Ġdrones
ĠKath
widget
Ġwhit
Ġlacks
Ġfinances
ĠMoroc
January
>',
Ġurged
Ġcopied
Ġmainland
Ġyearly
enez
Ġmentor
google
ĠSpeech
Treatment
Ġspeeches
West
Ġlightweight
UTH
Ġosteoporosis
IAL
outputs
tool
Ġdefending
Conv
expand
Ġjury
Ġacne
Ġforemost
ĠMike
Ġadolescence
focus
ĠPel
Ġcrushed
Ġemerges
Ġconfigurations
design
Ġbreathtaking
Interest
izard
plets
Due
native
Air
Sem
ando
Ġnegotiate
ĠRules
namese
ĠMobile
Ġbypass
ĠHumans
Ġseamless
Ġdiscrep
ĠChand
ĠHighway
Ġambient
notes
Ġtransfers
Ġprofitable
Ġcant
icine
Ġresh
Ġherd
Ġpersonalities
Ġcompensate
PAS
>.
enabled
ĠInterestingly
("/
ĠInside
erns
Ġmicrowave
Ġlengthy
elescope
âĸĪâĸĪ
Ġcapitalist
Ã©t
Ġclearer
aire
hering
Ġpept
()[
Ġexcellence
Ġreinforcement
ĠLucy
aculture
ĠBirds
Var
pieces
ĠNaval
ĠCaesar
ĠPhase
Imple
ĠWARRAN
elsius
Ġmalicious
Ġlowered
ĠErn
lined
tok
ooting
elivery
Ġaccommodation
(\
Ġfortun
ixon
Ġgeology
Posted
Ġincentive
compet
ĠJay
Ġlined
Ġseq
Ġcalorie
pattern
Ġcaterpill
Ġanterior
Ġgenerators
deep
shine
their
Ġuneven
Ġstretches
PI
Ġail
ĠComment
ricanes
Ġinstallations
)"
Ġlumin
ĠLaure
Ġtuberculosis
ĠLE
Ġfloss
Ġsty
empor
Rev
Ġwr
urdy
Beyond
none
incre
ĠDivine
Ġprotagonist
()))
Ġnortheast
verbal
ificance
Ġcredited
Ġfellows
gone
ĠNavigating
oS
ĠAdjust
Ġhoused
Ġowing
Ġanonymous
Ġhonour
ĠEncouraging
dings
Ġgospel
essed
ĠFamilies
rators
Ġseals
Ġupwards
ĠHealthcare
ĠUkrain
Ġfirsthand
Ġobservers
Ġsupreme
kill
ĠPapers
growth
ĠMade
Ġnonfiction
cott
ĠWol
assed
Ġsuccessive
Ġconcise
Ġsuspension
arange
uder
dump
frames
ĠMis
Ġsupplementation
Ġnaming
ĠGenetic
Ġfragment
geo
oske
Ġperv
ĠNorwegian
Ġresembles
Ġveggies
bank
mentioned
Thank
ieve
Ġredist
Ġhesitate
aple
eltic
separ
Ġideologies
ĠEmotional
Ġchlorine
Ġmonks
Bi
ashi
Professor
Ġphy
upload
Ġcollectors
Ġpleased
ĠÎ±
EEE
Help
Symptoms
Never
}/
ĠEt
rimination
Ġstepped
Ġgraduation
products
WR
Ġlush
Ġplacebo
Afric
Ġsymmetry
mile
ĠNapoleon
UV
ĠFinding
subject
Local
ĠGent
ribes
ĠNicholas
OUT
Ġmerchants
Ġbronch
Ġcomet
orthy
Ġcomputed
iothe
Ġtouches
Ġsafeguarding
Creating
Hello
ĠTan
Ġoutlet
Ġworrying
ĠASD
ĠInj
ĠBrah
Ġresume
riminal
Ġcabinet
Ġanalogy
dumps
ĠMason
gging
Ġglimp
Ġglimpse
YS
Ġ$\
Ġticket
ĠProperty
ĠIdeas
Ġbor
quet
ĠNormal
sigma
ographs
Ġangel
Ġcomfortably
ĠFamiliar
Ġnons
Ġburd
Ġeducating
Ġpersuasive
ĠGordon
ordered
Ġprincip
Ġpreparations
Fam
Ġsoutheast
ĠHandbook
Ġdialogues
dx
ĠBrazilian
Instance
ĠAustrian
ĠSynt
ĠCompare
ĠFirstly
oyd
chell
uddy
Ġwisely
Ġsacrifices
Ġlime
Ġdissemin
Ġcorrected
Ġponds
Ġconstipation
ĠPotential
Ġmulticultural
Ġvolatile
Ġproxy
uthors
six
Ġliteral
jar
Four
Que
Ġinhibitors
vars
Ġpredis
Ġwit
Ġangels
older
ĠGlass
Ġcriminals
inse
merged
Ġgatherings
ĠIU
umption
ĠRepeat
ĠFeel
rella
owered
ĠApart
ĠEL
Ġnecessitates
ĠMorm
ĠSalmon
cology
ĠGeological
ahren
Ġhonesty
Ġderivative
isting
Ġdeadline
ĠTab
Ess
ulence
Ġclergy
Ġlisteners
Ġlocom
ĠAlt
Ġmonkey
ĠVolunt
Ġretrieve
Ġcroc
Ġdors
Ġshy
Ġsuppression
':'
NN
Ġappreciating
Ġformations
Making
Ġdrift
ortunate
span
Ġcaves
Ġantenna
Ġperiodically
Ġcongestion
Ġagrees
ĠRelated
ĠLegisl
ripp
ĠSanskrit
ĠGray
Ġrains
Ġblogs
links
Location
pared
ĠRoom
Ġbuds
GM
Japan
ĠIQ
Ġreflections
Ġpins
ĠComprehensive
BE
Ġpioneer
Hy
Ġsuperf
ĠSurv
Ġench
Ġnowadays
Ġexposing
testing
Ġallocated
ILL
Ġfacilitated
Ġfutures
ĠLibr
ugging
Ġkiller
Ġphylogen
Ġchewing
Ġtile
ounded
ĠGradu
Ġlam
inav
ĠSharing
Ġwarriors
Ġshedding
Ġdull
Ġstolen
ĠAlb
station
aca
Ġsuccessor
Ġsubord
looking
itching
visory
Ġalterations
Ġcoaches
usable
ski
shell
cephal
Ġdeparture
Ġcompromising
ographer
ĠCel
Ġapplicants
ĠEstablish
tools
}')
racle
ĠStev
Ġresponsibly
Ġpursuits
ĠCI
ĠError
aha
Ġdependency
Ġgrandfather
ĠSenior
Ġcumulative
ratio
Ġscroll
Ġviewer
Ġacet
ĠHills
Ġdopamine
ĠWaste
braska
Ġvirtues
Ġsubsidies
Ġenlist
Ġpathogen
Ġfermentation
Ġsheer
Ġdining
Ġweird
Ġunified
Ġsociology
Ġmint
Ġshake
Ġintertw
Ġfundamentally
actor
ĠSingh
hered
Ġinevitably
Ġtreaties
Ġplaus
King
Sequ
/'
warning
Ġtracing
Ġcrowded
ĠGandhi
Leg
Ġsurveyed
Ġtimeout
Ġabsurd
Below
ĠDR
database
Ġdistractions
irl
ĠMadison
ĠHaiti
æĪ
nered
Ġestimation
hole
ultural
Ġredund
ĠMust
Ġconflicting
ĠAtlanta
Ġbeetles
Natural
Ġhered
Ġdeclines
umbing
ĠSlow
Ġeventual
ĠMagic
Foreign
Ġcone
Ġstrengthened
ducive
ĠBiblical
ĠFlight
iliary
Ġhobbies
Ġbishop
menu
ONE
bias
Ġbeams
ĠEight
ĠDB
={'
Ġtoss
Ġlex
Year
delta
ĠAnswer
Ġclearing
ĠRidge
Ġcartilage
Ġacoustic
Ġpurity
Ġlemonade
apper
ospace
German
Ġcontextual
Ġremotely
âĢ³
Ġdebug
Ġdisturbed
ĠSolution
Ġglut
derr
Ġpancreas
November
rof
Ġexempt
temperature
Ġorbital
Ġsolids
colonial
FI
ĠRoy
onds
Ġinsomnia
Ġpresumably
Ġseparating
Ġembryo
Incre
ĠLetter
rase
were
CAD
illo
ĠAbstract
Ġsuspicious
Ġnegotiation
ÑĮ
Ġnowhere
Ġspecification
Ġtextures
Ġtorture
Ġulcers
Ġharbor
ĠAnthrop
Ġelectr
Ġpickle
Ġleap
Ġrhetoric
Ġml
Ġstyl
Ġcheer
container
sym
Ġunpredictable
_,
Ġunderpin
Ġpasta
ĠPosition
Ġbuil
aluable
ĠInsurance
Ġconfronted
ĠTheod
ĠFalls
LR
Ġvegan
rov
Ġsoften
Ġdaylight
inner
cli
Ġcorrid
ocrates
Getting
Ġbamboo
ĠOrange
ĠBlog
Ġbuyers
Ġprompts
Ġconquered
Ġnozzle
cols
olicies
Ġcrus
sequence
Ġfauna
Ġinduction
doms
ĠEu
ĠLeft
ĠPressure
Ġblindness
Ġdonors
Ġposting
Ġsecurely
Ġaltering
platform
question
Ġbathroom
ĠElementary
Ġmighty
ĠHorse
ĠPanel
ouver
Ġours
Ġhammer
à®
assing
Ġsandy
ĠTerritory
filters
Ġhypotheses
Ġpropagation
ĠNarr
prise
ennial
Ġdemonstrations
ĠMom
Ġgovernmental
ĠIranian
ĠRivers
outheastern
Ġintend
Ġuniquely
Ġspacing
ceptive
Ġweaker
Ġmotions
Ġtoe
asian
ĠDays
Ġgrowers
ĠWhatever
ĠPublished
ĠCatherine
ĠGreenland
Ġslices
Ġmour
Ġcontrasting
ĠKaz
utrients
erates
ĠElectronic
rights
ilial
ĊĠĠĠĠĠĠĠĠĊĠĠĠ
central
ĠâĪ
Ġconsecutive
ĠFlorence
Ġfog
icating
ĠBrow
Ġdismissed
Ġbeginners
discovery
Ġsimplified
Ġacupuncture
Ġpills
Ġbic
Ġcatalyst
ĠYah
Ġstride
Try
collection
Americans
ĠEasy
SWORD
Ġsnippet
ĠCant
rational
ĠSecondly
ĠDetroit
Ġpractitioner
udal
ĠSpecific
kers
ĠEur
Ġembody
ĠCleveland
Ġequator
raises
ĠFresh
Ġhell
Ġstatistically
Ġregulators
ĠColonial
ativity
Ġprocessors
ĠCampbell
Ġlegitim
'},
ici
Ġconducive
ĠRice
Ġtraction
dl
ĠPE
ĠDent
Ġaccent
Ġcapita
Ġconfirmation
ĠComputing
Ġcyt
Sal
Ġcriticized
Ġpaired
ARD
ophys
áĥ
Ġinland
ectar
ĠScale
Ġavoc
ĠClaud
Ġbored
Ġbachelor
entity
Ġcancel
Ġlamps
convert
callback
semination
ĠMeeting
Ġcrafted
Ġcasualties
Ġwives
illation
Ġdessert
Ġplains
Ġconscience
Ġsurn
ĠAbuse
Ġrefres
extra
ĠEbola
(**
ĠPositive
direction
Ġpockets
sonian
Ġelectoral
Ġbandwidth
Op
ogenous
ĠConflict
('-
locking
FE
Watch
ĊĠĠĠĠĠĠĠĠĠĠĠĠĠĠĠĠĠĠĠĠĠĠĠĠĠĠĠĠĠĠĠĠĠ
Ġadmissions
Ġlear
ĠScand
ĠJonathan
:,
bf
ĠDogs
ĠLessons
MB
ĠAssistant
Ġdoctr
ĠJSON
aceae
Ġcease
occus
Ġplagiarism
Building
ĠSally
Ġlifestyles
illas
Ġmaths
Ġmetallic
Ġseismic
Ġdrone
Ġspectral
Ġbirths
Ġconquer
Ġsurpass
phony
IGHT
taking
xis
eners
Ġseized
ĠKra
Ġhandler
Ġobstacle
Ġammonia
ĠGeneration
ĠAlberta
ĠRu
uilt
Tr
Ġdirectors
Ġoriented
Ġintuitive
Ġbrutal
Ġchunks
Ġflock
Ġminers
ENCE
Ġhomemade
Ġquietly
Ġforensic
oidal
]])
Ġgrouped
fetch
Ġmph
Care
ĠRegularly
online
creation
Ġunderscores
Ġgifted
Ġopioid
ĠBrian
tick
Ġrenov
Ġoverlapping
ĠLimited
square
idepress
Ġspare
Ġkeyword
Ã©e
Ġlabeling
ĠWik
Ġhaunt
adium
ĠCanadians
GER
Ins
Ġrandomized
yroidism
Ġdetective
Ġpupil
Ġbins
Ġappointments
pressure
confidence
Ġwished
ido
ĠMyth
ĠBarbara
Ġpads
Ġdoubled
Ġhumility
ĠCrus
ĠColombia
Ġslee
Ut
Ġinert
ĠWard
Ġcoup
Ġcolonialism
ĠClar
irtual
pd
Ġundertake
Ġlava
ĠViolence
relu
roots
ĠAbd
Donald
Ġskies
ĠEnjoy
Ġenslaved
isen
Ġdonated
ĠFourth
Ġrecomb
Ġcaptain
abel
Ġmemoir
ĠMeaning
mant
enguin
Ġneighbour
ĠBreast
Print
cra
Ġvalleys
blocks
odynamic
iden
coll
Ġrecruitment
hs
ĠBL
ĠGran
izzes
ĠDemocrats
ustainability
otted
commands
Ġschooling
Ġtravelling
Ġreside
ĠSeason
Ġstatues
February
Ġbuildup
ĠVo
ĠNumbers
Join
Power
Ġmills
Ġarist
ĠBrid
Ġcerebral
Ġautobi
forget
ĠDescribe
ountain
ORY
Ġoutreach
Ġsteal
Ġundes
Ġricher
Ġarithmetic
ĠArn
ĠEither
orns
Ġdestinations
Ġwiring
Ġdug
ĠHeaven
Ġpredictable
Ġmanifestations
Video
ĠCities
Ġsurplus
icidal
ĠAreas
Ġmalware
Ġchloride
Ġmerc
âĢĲ
Ġcongen
opus
Ġclosure
ariat
Ġprompting
Ġinhibit
Ġspontaneous
colored
Ġdeleted
Ġultraviolet
herical
Ġplantations
Ġhydroc
wra
Ġginger
auer
Ġimperfect
Â»
Ġexaminations
Ġcirculating
lla
ĠDecision
immer
ĠBMI
ĠKam
Will
eliness
Ġguards
Property
Ġmotivate
ĠWa
ĠRecently
Ġinclined
Ġthee
naissance
Ġformatting
usc
Ġbetray
Ġmilestones
Ġunaware
Ġlend
Ġcomputation
Sec
Ġhemisphere
ĠEconomy
Ġfavourite
Ä±
ĠWoman
ĠVietnamese
Ġsmokers
bottom
Ġbricks
Ġnodded
Ġreck
Ġhatch
Ġexile
Ġuseless
Full
Mode
Rob
ĠMend
Ġevoke
Ġinvites
Ġuptake
Ġqueer
attributes
Short
Ġbombs
Ġrevis
Ġvendors
ĠMatter
umatic
Ġ")
ĠDefine
stdout
bins
Ġskeleton
ĠTelescope
Ġrisen
Ġtelescopes
BB
ĠĊĠĠĠĠĠĠĠĠĠĠĠ
ahn
Ġwaist
ĠResistance
Ġapproximate
Ġpossesses
supported
Ġunderscore
Ġquadr
ĠEngage
ĠVillage
Ġtires
ĠLinks
Ġstriving
management
Ġtendencies
Ġmitigating
ĠTanz
phi
ĠDOI
micro
ĠEmma
ĠSources
ĠPrad
ICENSE
Ġreputable
quire
COL
Ġfrog
ĠES
ĠDA
ĠMig
innamon
ĠKnowing
Ġiodine
Ġimpacting
ĠAtmosp
Ġpackets
Ġunsafe
Ġindent
ĠThreat
enz
ĠPD
Ġimpressed
ĠYoga
Ġhomeland
ĠAch
Ġlem
Ġenamel
ĠPin
Ġoverly
ategories
eye
Real
went
ĠDest
ĠUl
Ġcollector
ĠBaby
Big
Ġchunk
Ġnotation
Ġcoefficients
esters
Ġlent
uer
ĠDouble
multi
Ġendorse
requently
Ġautomobile
Ġeighteenth
Ġreptiles
ĠDNS
ĠBengal
conduct
opolitical
anic
ĠJoy
ishops
Ġapprent
ITE
avg
merge
apses
Ġarchaeologists
Ġneurotransmit
Ġcapsule
Emb
ilon
ĠKle
hearted
alam
Ġpenalties
Ġpyramid
Ġoutlook
opot
Ġconviction
Ġconcurrent
ĠKash
Ġfierce
Mart
Ġdaunting
ĠBruce
Ġperennial
Program
Ġfavored
flags
contrib
ĠIntegration
Ġhiking
Ġinjustice
ĠRuth
Ġcoexist
Ġillusion
Ġrupt
Central
Ġreplicate
Ġimped
Ġbackdrop
series
/)
Ġdiscontin
Policy
Ġelbow
trace
cov
drawn
Ġsized
ovak
ĠEvents
ulu
ĠCole
riel
Ġinvaded
ĠMeta
atra
eno
Ġinverse
ĠBAS
Ġbarrel
Share
ĠBring
ĠNegro
Ġcommodities
blood
release
Ġsediments
Ġwavelengths
Ġprescribe
coal
Ġcookie
Play
ĠBuff
anti
Ġbiopsy
Ġbarn
Ġpatents
computer
Pal
Ġresidue
compile
Ġpioneering
Ġchopped
aba
centered
east
ĠCathedral
,,,,
uded
ĠNazis
Ġmultimedia
ĠCosta
apolis
mos
oba
construct
emp
Ġairborne
ĠSingle
Ġfluorescent
ahrenheit
Looking
idering
Ġvoid
Ġrecurrent
Ġyoungest
Ġnursery
Fin
Ġ-------
Ġvest
ĠBaker
Ġblessed
ammy
Ġfetal
successful
uter
Ġmanages
Ġremem
Ġunfortunate
Ġstip
Ġrecycle
Ġprag
ĠGN
Ïħ
ĠMC
Ġillustrating
ĠLiberty
Ġexcerpt
Ġunderway
lishes
Ġshiny
irements
Ġdiffusion
Ġpruning
Ġexpans
Without
Ġrolls
ĠCrisis
turn
ĠCelsius
governmental
Ġdonation
Ġantiv
Ġcompetitions
ployed
Ġtheological
Ġbean
rik
Ġattr
ĠArmed
eq
Ø±
ĠTut
ĠAld
ĠVice
Ġpulses
Ġidi
Ġweighing
Ġmanageable
ĠEssential
ĠThanksgiving
Ġjunior
Ġmisleading
ĠInteraction
Ġcage
ĠHope
Ġcriterion
ĠHungary
Flow
Ġflourish
]],
raise
Ġarrives
Ġlos
ĠHob
plots
Ġjustification
ÃĹ
Ġreception
ĠSuddenly
ortium
ĠHinduism
Ġeighth
Ġremarks
Ġrecipients
Ġcube
Ġsimulated
Ġversa
Ġdinosaur
Ġendeavor
Ġcousin
opia
ĠNames
Ġlobby
Ġcovenant
Should
ĠJohns
onyms
ĠRevolutionary
Ġelusive
Ġdependencies
Ġstainless
px
Ġeleven
Ġjudged
ĠTA
Ġenclosed
ĠGIS
Ġshortages
Ġcaptures
Ġaccessories
Ġcontraction
ovirus
Ġavoidance
Ġpsy
Ġgroom
ĠOptions
Ġannouncement
Ġtel
Ġdiction
Ġreun
ĠLack
Ġ-=
Smith
ĠMut
Ġeducator
ĠBehind
Ġscheduling
*(
PASSWORD
Ġinfantry
pyplot
Ġbedtime
Ġaph
)}
Ġlions
verbose
Ult
Ġcompuls
ealous
|'\
onstr
ĠHep
Ġrecount
ĠHurricane
Ġclimatic
season
Ġdad
Ġcharacterization
ĠGreater
Ġscarcity
sets
oscopy
ĠCooper
Ġqualifications
generated
Ġterrorist
Ġmaize
Austral
ĠMedieval
controller
Ġtaxation
Ġwors
former
Ġdressing
ĠColonel
ĠDefining
ĠListen
ĠTests
ĠWyoming
city
ĠIgn
Ġproposition
Ġcherished
mk
ĠRico
Ġdespair
bee
ĠRud
Ġlineage
inburgh
ĠLooking
Ġreviewer
Ġneon
ĠCarter
axes
Ġsmarter
geries
Device
Ġdash
')),
ypical
Ġhorizons
ĠBackground
xia
Ġmisc
ĠSic
venth
Ġ###
ĠJenn
Ġdivides
Ġspinach
Ġstaple
regulation
ï¬
inqu
ivores
chart
Ġjail
leen
Ġaftermath
Ġskeletal
({'
Ġovere
Ġgoats
bors
Ġpagan
ilization
Ġsung
Ġdownloaded
Ġdeficits
redients
ĠHoriz
Ġgrapple
Ġsab
anguages
Ġaccommodations
journal
Ġreminis
Ġluc
Ġjudgments
vs
Ġrecalled
Ġtackling
Ġoy
Ġpaved
Ġmites
Ġswitched
uela
Ġgrandmother
ĠClassical
Ġreactive
čĊĉĉ
Alex
Ġalbeit
Ġsocialist
Ġnotebook
urnal
Climate
Ġdolphins
structure
Ġstup
reader
Ġanimated
AMP
ĠGothic
Ġski
ORS
ylum
Ġwasted
afety
Ġfiltration
IES
usters
ronics
Ġbeginnings
Ġpinpoint
ĠJere
Ġpara
Ġmisunderstand
Ġquestionnaire
James
ourge
Still
Ġepist
ĠâĪĴ
otyping
Normal
owl
Ġresurrection
Ġtendon
Overall
Ġcomposer
'"
private
Ġcertainty
ĠParad
Ġreflux
iens
Ġrounds
ĠRate
Ġtrop
ĠApost
abus
ĠDa
ĠReality
Ġphotographer
Å¡
Ġbeats
ĠÂ§
Ġvegetarian
duration
iae
shift
Token
posing
running
Ġpumping
Ġinconsistent
ĠNothing
Ġbiologists
vet
ĠDrive
Ġpigment
MENT
ropract
ĠAssociated
--------------------------------------------
Ġenforced
odium
Ġwastes
oft
ĠNovel
Ġjournalism
Ġimaginative
Ġcartoon
oise
uart
Ġcaf
ĠInstruction
ĠConsumer
Ġoptimizer
Ġscrutiny
Ġflatten
Ġreportedly
Ġstrands
ç»
ĠSyrian
President
Ġforbidden
Ġcrazy
ĠQueensland
Ġmars
Ġentertaining
ĠSexual
essment
Ġspur
__.
Ġlbs
Ġextensions
Ġtextile
âĢł
ĠBiol
ĠAutism
TIES
Ġwins
Ġshelves
Ġengra
Ġgrandparents
Small
inas
Christian
Ġbenign
Ġconsole
Ġretaining
simple
Ġmurdered
Ġorganised
ĠMigration
Ġvolcanoes
adding
Ġnitrate
Ġgadgets
atics
ĠAdding
ĠOrigin
Ġubiqu
Ġshores
ĠLif
Ġtriple
Ġenhancement
ĠNik
Ġbrass
ĠAdm
Ġphotographers
urls
Ġlaunching
chemy
VM
ĠGot
ezing
Ġforums
Ġmorphology
Ġcents
Ġvibration
Ġconstants
Ġsummarize
WHO
William
blow
Ġblended
Ġbreach
ĠRefuge
uint
ĠNebraska
Ġtemplates
Ġhypothetical
Ġnets
Ġcountryside
Ġdisagreements
ĠCeltic
ĠFra
Ġblessing
Ġharnessing
Ġepilepsy
ĠManc
ĠIdaho
=_
dc
fake
fits
Ġpeat
ĠOrd
ĠPCR
Ġexchanged
ĠOP
Ġflush
Ġdevised
ĠInitially
Ġcohort
License
Crit
Rich
bind
ĠGH
tokens
umbling
Ġrelatable
ĠSeek
Begin
freq
Ġsixty
omatic
urities
Ġsunscreen
Guid
Ġcardboard
Ġanesthesia
ĠPray
Ġsimplify
Ġcortisol
ĠLatino
addle
Ġâī
Ġsuffix
visors
>'
usp
ĠGather
ĠGy
Ġfuneral
Ġadvocated
ĠRou
Ġshrub
Ġrecession
Ġisolate
ĠKnown
Parameter
Ġstool
Ġcaval
ĠPom
Ġcitrus
Ġvitro
Ġamateur
ĠMt
Ġzoom
Ġsoluble
Firstly
ĠME
Ġmultitude
Ġesp
attery
Ġchampion
Ġkits
Ġoptimum
Ġinventor
News
Similarly
ĠMurray
BR
ĠHi
ĠConditions
Ġfal
Ġcharm
Ġresearched
tically
Ġpyl
ĠAF
ieu
Ġmetaph
Ġlifted
alis
ĠSeg
Ġintolerance
Ġdisturbing
Ġtablesp
established
mag
Ġtennis
Ġinaccur
Ġsalts
plain
enson
Ġvisions
Ġbankrupt
ĠProced
ancouver
ĠRepublicans
generational
David
Ġstark
ĠParticipants
Ġsailing
Ġpossessions
Ġancestry
Ġcontagious
Ġlocalized
within
Interface
Ġvaginal
Ġsturdy
Ġintroductory
begin
ĠClose
Ġaeros
Ġprehistoric
arius
ĠSteel
ĠMarie
Mix
PY
Ġstarch
Ġgoodness
Ġsaints
Ġembodied
Ġenlarged
eled
eroids
ĠÃ¢
ĠFew
Ġsuffers
Ġadministrator
Ġdosage
Ġopenness
Ġcausal
Ġdevote
oken
Ġforage
Techn
Ġexplosive
Ġkiss
Ġrefract
ĠCF
ĠGun
Ġflaws
Ġexpecting
ungle
Îº
Ġdances
Ġshoe
Ġencoded
dims
Ġstiffness
Bra
ĠPrem
Ġnectar
aying
Ġportraits
ĠIsraelites
Ġphysicist
icans
Ġmetast
ĠSeeing
Ġseldom
Ġwart
Ġserotonin
evin
Ġinstructed
ĠCovid
alone
appro
hibition
Ġhotels
ĠSARS
Ġcommunist
ophyll
Ġcanopy
Ds
gas
ratory
Ġeconomists
Ġantagon
Ġlogistics
Ġcollagen
ĠPlains
Draw
`:
Ġinvaluable
Ġcrowds
Ġlipid
ĠPitts
follow
Ġprose
signal
communications
lived
symbol
Ġaden
ĠMatt
Ġdwelling
ĠChick
Ġborrowed
ĠFill
Ġpoetic
Show
Ġ:,
ĠScholars
Ġregeneration
opotam
selling
Ġcellul
ĠDisney
aths
Ġprintable
ĠVers
Ġboasts
Ġmessaging
Ġinaug
ĠNut
Ġscoring
ĠMontreal
aan
ĊĊĠĠĠĠĠĠĠĠĠĠĠĠĠĠĠĠĠĠĠ
iza
Ġscipy
ĠArg
Choose
><
Ġaccidental
reviewed
ĠSoph
uni
Ġlethal
Ġdenial
team
skip
Enum
xcc
Ġoversight
Sah
ellite
ĠJoin
scribe
Ġconsultant
Ġculp
ĠHost
ĠEquipment
Ġhectares
Ġimmort
Ġplantation
Ġvicinity
biology
Ġaerobic
Ġfare
shire
Ġoverload
ĠProjects
Ġfulfillment
associated
ĠMia
ĠRele
Ġencaps
Ġspecialty
Ġastronomical
asci
ĠCooking
Ġmucus
Ġcandles
Ġrodents
Ġbrowsing
Ġmapped
ĠConsiderations
Cap
iece
flight
prior
ISE
Ġaudit
Argument
ĠFlood
Ġautomotive
SIZE
London
Ġsap
ĠNord
Ġgenital
Ġfulfilled
Ġmaker
ĠTes
ĠNick
hattan
Ġapolog
CDC
inatory
seconds
Ġtuned
ĠCornell
Word
ĠSugar
ĠMine
ĠArc
Ġcran
Ġanalysts
Ġcompares
ilitating
Ġfixing
UND
ĠTopics
heid
definition
Ġsorting
Invalid
developed
Ġmerged
Ġbanana
Ġfingerprint
Ġjurisdictions
Ġmoss
Ġpause
Ġmening
Ġcereal
Ġjelly
Ġaz
Ġswept
ĠRailway
Ġbounds
Ġperformers
offic
verbs
Ġnewsletter
Ġbattlefield
Ġcooper
methods
Ġdesignation
usk
keeper
Ġpoorer
ĠQuick
Online
Ġpioneers
)])
PORT
ĠTol
Ġbree
ĠCauc
ĠGA
ussions
Ġurbanization
mund
ĠWet
recogn
details
Ġvigorous
Lim
Ġmutually
tight
elia
ĠTrain
ricting
ĠWarren
Ġconson
ĠZoo
Ġripe
Ġbarley
Ġgenealog
Ġmarriages
ĠAssociate
ĠRoll
Ð¿
Ġsulph
Ġexceeds
Ġflask
Ġdiscarded
ELL
Ġignoring
ĠDelaware
ĠScandinav
PUT
abi
Answer
verted
ĠDynamic
Ġprince
Ġpenetrate
corn
roscopy
Ġren
Ġ"_
Ġros
variables
Miss
Ġcath
ĠCou
NT
Ġzoo
ĠOpportunities
ĠOutput
nuts
ovol
Ġcolonists
Lead
Ġcasc
Ġdegeneration
ĠLORD
()),
ĠShan
čĊĠĠĠĠĠĠĠĠĠĠĠĠĠĠĠĠĠĠĠĠĠĠĠ
pectives
Ġresolving
Ġsurgeons
abad
Ġfamine
Ġsuite
ĠCountries
Ġcollapsed
circ
iably
Dem
Ġenlarge
upt
ĠFahrenheit
Ġeyel
------------------------
Ġfigured
ĠClearly
Ġbilingual
urved
Ġhasattr
Ġexploited
Ġsaint
ĠNH
Paul
Ġheir
ĠFern
ĠFL
ĠRound
Ġcertificates
Ġslowing
aucoma
Ġsensit
atom
ĠConduct
ĠNetworks
double
lag
×Ļ
ivan
ĠGR
Ġmarketplace
Ġ>>
alph
urers
Ġfiref
Ġassistants
Ġgreed
Ġincomes
Ġreminding
services
/(
Ġjunk
zema
cred
ĠHapp
Ġcolder
ĠClay
Ġlacked
ĠFormation
ĠHamps
Ġlyrics
determination
messages
Ġfighters
Ġcores
ĠRoger
mc
Ġpains
Ġupdating
Ġrefrigerator
Ġiteration
Ġidentifier
Ġinternally
Ġimbalances
ĠPediatrics
Ġundermine
Ġconstituents
opsis
Ġfreedoms
ocular
Ġdoubts
Custom
Ġpunch
Ġpasture
ĠLect
Results
Review
ĠMessage
Ġneuroscience
ĠStarting
Ġattracting
Range
Self
zzy
ĠGregory
Ġupgrade
anners
Tw
onies
ĠTibetan
Session
Ġelong
Ġnatives
idi
ĠLinear
Ep
erobic
Ġlovers
Ġstamps
Ġpoisonous
ĠHampshire
dish
Ġreactors
Ġtunnels
oam
Ġcaste
ARY
ĠChildhood
Meta
ĠKos
Ġcarpet
balance
Ġturkey
Ġhatred
Ġoxidative
opping
ĠStorage
Ġcollaborations
Ġmould
Ġformulated
Ġsignatures
curities
Ġdebts
ĠVIII
Ġangular
Ġinhal
ĠVenez
Ġdome
abwe
Ġdenotes
LOC
ĠBulgar
ĠHawaiian
Ġharmonious
duino
Ġformulation
pora
Ġproudly
bullying
UK
Ġfighter
ĠSample
ipple
Ġlearnt
Ġshrimp
ĠBullet
Until
ĠLock
ificate
ĠVenice
Ġimmersion
Ġswollen
San
atum
Ġappeals
Ġinequalities
ilated
Ġheater
Stat
Ġverified
Ġenj
Ġendure
interval
Ġselenium
Light
Ġds
ĠEff
ultan
ĠAdults
ĠReason
Ġdepicts
gia
Ġtam
Ġcommitting
NR
ahl
rophe
Ġulcer
ĠCroat
Ġlev
Ġirrelevant
poll
licenses
ĠButter
ĠRussians
ĠHollywood
rys
Ġministers
ouncils
Ġmulch
"\
Ġbrake
Ġunexpl
arthritis
Ġzo
Ġfigur
ĠAtlas
ĠCuban
Ġimpulse
Ġintercept
Dom
ĠTrees
Ġteenage
validation
Currently
ĠSL
Studies
ĠBernard
imates
ĠSed
nik
Ġgon
Ġchairs
Ġspike
Ġcyan
pages
Ġalarming
ĠKan
ĠChamber
generator
ĠPI
ĠSouthwest
izziness
ĠProtein
Ġalbum
Ġideally
ĠMelbourne
Different
Ġcuc
Ġvirgin
ĠLabour
Ġpoured
Ġrheumat
modules
Ġlicensing
iour
ĠAid
ĠUsers
Ġattractions
ussia
ĠBP
Ġscent
Ġineffective
ĠWatson
ĠChamp
ĠVA
Ġambition
Ġhackers
Ã´
Ġexpands
Ġsettling
âĶĢâĶĢâĶĢâĶĢ
Term
false
Ġelectrodes
%(
natal
");
Ġsticking
Ġheel
Ġremnants
esus
Ġtestament
ĠAssy
![
amorph
ĠBus
efined
Energy
oj
Ġfamilial
pherd
dal
ĠICT
ĠPatri
winning
Ġscrew
ĠQuarter
Ġteenager
Implemented
Ġilluminate
border
Ġsupplier
Ġstrides
ICAL
sensitive
idelity
endix
ĠImprove
ĠRapid
ĠCow
Ġdisreg
ĠGeography
Ġmissile
Ġsanctuary
Ġspheres
Ġprogresses
ĠModels
ĠProgramming
Ġwaterways
Ġinsign
ancell
ĠNeither
={}
Ġego
ĠJama
noise
Ġmathematicians
ĠRoot
Ġspores
Ġlogo
TEST
Ġworsh
Ġinfilt
Ġinterchange
ancipation
Ġmeasles
Ùħ
Best
]).
Ġbeverage
ĠGI
Ġclassify
issors
Ġalternating
Ġblanket
Ġenvelope
Ġgrappling
arre
andy
ĠAnxiety
Ġmasterpiece
ĠTamil
Rober
Ġlord
Ġgaze
ahu
thalm
Ġbun
Ġlasers
Ġcrater
Ġdiamonds
NING
wig
ÃĤ
airo
hl
ĠPoetry
activation
ĠInvent
ĠVII
Ġgenomic
ostics
ĠStre
Ġ[(
Ġsiege
include
Ġnationally
Ġstimulates
ĠRural
Ġ---
Ġcollisions
Ġassimilation
iciary
Ġii
ĠEdinburgh
Ġcentralized
ĠGovernments
Div
olo
Ġcooled
Ġgenuinely
ĠNGOs
Ġmisuse
ĠAccept
Ġdiscourag
Ġvague
ĠResolution
ustrial
Ġspends
Ġadditionally
}".
------
Effective
Ġwx
ĠDirections
ĠFormat
grown
arus
tym
Ġ_,
irmingham
Place
ĠPearl
ĠUganda
è¡
Ġadditives
Ġroofs
Ġovarian
iguous
owski
Ġutilizes
ĠFoster
ĠDeal
Fast
Ġcoop
Ġstringent
Ġmurd
Ġseab
ĠUT
Ġbiologist
Ġgesture
,)
Ġbrit
relation
Ġcontributor
ĠFilm
ĠPlatform
Ġdt
Ġhomeowners
Ġinsisted
GO
Much
inars
Ġgrammat
MAP
Ġwitch
ĠChurchill
Ã¸
ĠAchie
Ġleaks
ĠGO
Ġcalf
Ġsunset
Ġleafy
Lat
aque
à¦
Ġnoises
Ġshelters
iodiversity
ĠMonte
Steps
Ġsupposedly
Ġsibling
Ġhurricanes
Ġenjoys
Ġdread
Ġorbits
Ġabrupt
ĠConstruct
Ġanthropology
Special
kw
kward
erators
Ġestablishes
contact
Ġcaptive
Ġcongregation
Ġoptimistic
Ġexhausted
Ġfetus
Ġracist
Ġvigor
Ġcreatively
compute
Ġpeanut
ĠImplementing
gom
meal
ĠALL
Ġcathe
Ġextracts
ĠTransfer
Ġcollaborating
ĠMaintain
ĠCalculate
chair
ongo
doctor
calcul
ĠScientist
Ġhalt
ĠVoice
Ġscientifically
Ġargu
ĠReduce
Ġpremises
Ġdescended
cot
take
Ġduck
ĠElse
ovie
ylabel
Ġtant
ĠWash
Ġcoined
ĠImplications
ĠInstru
ĠPret
à¤°
Rest
aneously
Ġdiagnoses
aurus
ĠFreud
ĠPLA
Ġantigen
beth
far
anche
Ġuniversally
processed
Study
Ġdisrupted
Ġridge
ĠRAM
Ġcondemned
Language
Ġeats
Ġinnoc
ĠRepresentatives
Es
andom
configuration
Ġmonastery
ĠHimal
itures
Ġspeculation
ocating
Ġpredator
ĠAV
ĠMir
Ġ{}'.
Ġseizure
ĠCort
Ġgetattr
install
ĠEssays
Ġdowntown
Dataset
-,
ril
Ġreluctant
India
issa
political
ĠRaw
Ġtraded
Ġsolo
ĊĠĠĠĠĠĠĠĠĠĠĠĠĠĠĠĠĠĠĠĠĠĠĠĠĠĠĠĠĠĠĠĠĠĠ
alloween
Ġsourced
ĠCher
ansom
Ġumbrella
Writing
bucket
apple
Ġvalidated
Ġclocks
Ġstreaming
HOUT
Ġabsorbing
ĠGeneva
ĠCitizens
Ġtiger
illin
Ġdelivers
Ġwinters
ĠExcess
Ġtaxpay
ĠFinance
Ġgiants
Ġhast
Ġannex
Ġspoon
Ġcharacterize
ammed
lexia
containing
Ġesteem
Ġcrosses
Network
Ġshipped
Ġchew
Ġtil
ĠNit
ĠSuff
ĠHolland
Ġdeterioration
]["
Ġproceeding
Ġbroccoli
ĠÐ¿
ĠÑģ
Ġattained
Ġfinest
swig
^{
Ġrelic
Ġhydrop
vier
idable
Ġretrieved
XXXX
ĠZhang
Cond
Ġmalnutrition
Ġneutr
Ġmang
Ġoverth
arson
Ġburge
Ġrebuild
Ġruin
Gra
ĠLyme
ĠLud
ĠVel
Ġskeptic
rament
share
ĠOptim
Ġdialects
ĠArmenian
ĠTensor
Ġdeform
Ġunequal
ĠRelationships
Taking
oren
ĠHousing
Ġlett
Ġdismant
ĠReich
oco
ĠSelection
glob
Put
Ġonion
ributions
ĠBeck
inational
ĠCe
lectric
ĠVermont
iots
Ġthereafter
Ġdefenses
Ġinterpol
Ġembryos
ĠRenew
Linear
fem
approx
Ġsubscription
Education
Ġcompelled
ĠFlag
Ġoptimizing
âĪ
ĠDance
Ġtemperate
.âĢĶ
LINE
ĠExactly
Format
viol
ĠKant
Ġprivately
ĠSprings
Ġthirteen
Ġreservoirs
Ġtrump
Ġevaporation
asuring
Ã±o
Ãª
Ġincap
Ġsimultaneous
Ġviewpoint
ĠFlash
ĠGraham
Ġplausible
cb
isexual
Ġdestiny
ĠContract
Ġembarked
è®
elif
ĠJudge
relations
ĠMayor
Ġburnt
iji
Ġsailors
BER
Gold
inist
Ġvertically
Ġdilemmas
eered
Ġstressors
ĠYeah
Ġsolitary
ĠAcid
ographers
Ġlod
Ġunjust
Ġantidepress
Ġcured
Ġhats
ĠGuate
fr
Ġpillars
pretation
ĠBak
ĠGrowing
ĠSecondary
!).
imbabwe
ĠWARRANTIES
isans
ĠStatement
Ġregulates
Ġhemorrh
Ġindef
zek
ilia
jection
Ġcallback
iquid
ea
Ġaltar
bach
tri
ethical
Ġscaff
component
ĠNOAA
ĠPlans
ĠArabs
wild
istration
kee
idential
repo
ÐµÐ½
paced
ĠHubble
gamma
Ġweaving
Ġadmire
Ġarsenic
Ġdecipher
derived
warn
ĠVancouver
eliac
ĠSenator
Ġfundamentals
Ġsuperficial
ĠKir
Ġdecisive
ĠContents
Ġcoaching
Ġoriginate
ĠZero
PG
pal
Ġwicked
uniform
Ġembro
mapping
Ġhunter
Ġfres
ĠSie
Ġvibrations
producing
Lib
itism
Ġdiscord
ĠSmithsonian
Ġmicroscopy
Basic
æĺ
Ġdonations
metrical
ecd
Ġtextiles
saving
Ġrenamed
Ġlb
ĠBeat
Ġprophets
Task
ĠCells
ĠHalf
Ġmentors
Address
Ġamplitude
Script
components
orf
illus
Ġdroplets
ĠDiscussion
ĠUkrainian
Ġreq
adapt
ĠNode
Besides
oks
Ġstal
Ġcocaine
Ø§ÙĦ
ĠEnlightenment
ĠGenetics
Ġcoastline
Ġenriched
Del
acting
Ġevapor
brown
ĠCycl
ĠJen
Ġtopical
Ġempowered
Ġamendments
Ġdeport
Ġendpoint
elements
Ġinjections
Ġeagerly
=["
chlor
ergic
Ġmusician
ĠDublin
ĠWere
Br
Hey
Î²
entary
ĠPad
annab
ENS
Ġfairy
Ġbudgets
ĠFinnish
French
Ġvi
swers
ASH
Ġowns
ĠManaging
cycling
ĠCondition
British
Mich
Ġbios
Ġmelted
ĠOlympics
Ġcavalry
lins
mut
POS
Ġexceeded
Ġeagle
ĠStri
Ġstationary
Ġmitochondrial
Ġpygame
Ġnumbered
Ġwebpage
Ġmodifying
Ġdecomposition
ĠConcepts
Ġbackwards
Ġiterations
Ġfores
Ġdiscretion
xlabel
ifted
Ġscrub
ĠMaur
Ġaccus
Ġdistinctions
Ġreadiness
imentary
boat
ĠBalance
ĠValues
forgettable
uters
Ġprisoner
uria
Ġjunction
Ġholder
meaning
Ġevidenced
Ġcanals
worker
clesi
ĠWait
MAX
ĠSigns
Ġbibliography
ĠApr
Ġupstream
Ġovercoming
BP
Ġslot
Ġairway
Ġelectrode
diagn
crow
ĠGast
Ġallocate
Pack
say
Ġcategorized
Ġdeprivation
ĠGuardian
ĠRav
Inc
Ġoccurrences
Ġounces
ĠIndo
ĠPublications
Digital
Ġburgeoning
ĠGroups
Imp
Mock
counts
ĠSheet
ĠAbu
sterdam
ĠJoshua
Ġfranch
ifest
geon
Ġbackbone
Ġcaptivity
ĠHotel
ĠiPhone
cro
Ġrespects
ĊĊĊĊ
Ġcongenital
Ġcoated
Reading
toxic
Ġquantify
Version
ĠChes
Ġchefs
Ġterra
Ġindicative
Ġmortgage
keepers
Ġlivelihoods
ĠLives
Ġregain
ĠTemperature
urchase
Ġwaking
Ġcalibration
aphrag
ĠSikh
ructose
Effect
anmar
Ġanytime
affe
ĊĠĠĠĠĠĠĠĠĠĠĠĠĠĠĠĠĠĠĠĠĠĠĠĠĠĠĠĠĠĠĠĠĠĠĠĠĠĠĠĠĠĠĠ
ĠExpression
Ġliberties
lists
performance
these
itating
lev
Ġ'{
ĠFear
Ġarchaeology
ĠExcell
ĠVict
Ġteaspoon
Ġdetectors
ĠStein
Ġscalp
each
Ġlandmarks
Ġtk
Ġspans
ĠHorn
Ġcorpus
ĠHarrison
peer
Ġalkaline
Ġmyel
Ġaugmented
tained
Ġhypoth
Ġther
Ġforecasts
ifts
FORM
%%
tailed
ĠRES
ĠTanzania
luent
Ġnarrator
Ġdepletion
Ġthereof
Ġbacking
Ġbarrels
Ġcomplain
Ġunlimited
Ġdesperate
pars
ĠLag
Ġenglish
ĠMeet
ĠHelen
Ġreminders
Ġhelmet
Ġconstructs
Ġmisconceptions
ĠLebanon
ĠCrypt
ĠExposure
Ġbasal
Ġrecovering
Ġgraphe
Ġallergens
iam
mol
Ġcoughing
Ġmenopause
Ġprairie
Ġproto
ĠPS
Ġanybody
Ġscored
Ġmeantime
Î¯
Ġhaw
large
Ġfel
ĠMT
Ġirres
ĠChart
Ġplanners
Ġrainforest
ĠLegacy
organization
Ġfishes
Ġconstellation
gomery
gard
Plane
ĠElectrical
once
Ġquizzes
Ġblues
ĠDiam
Ġsharply
Ġfootage
visible
sampl
Ġtidal
aternity
War
Ġmodelling
Ġsignifies
Ġopera
Ġomn
ĠInterior
ĠDistribution
Ġprow
Ġknowledgeable
Ġcalculus
Ġeclipse
earth
Ġmaneuver
Ġchol
Ġstranger
ĠWire
Ġspecializing
Journal
upus
ĠValent
Ġproclaimed
Ġblueprint
Ġcass
Ġthigh
ĠWaters
Ġlongitudinal
Ġfaint
ective
film
ĠPerspectives
basic
ĠRegiment
legend
FN
larg
ĠChanging
Ġdiscourage
Ġexpects
ĠSignificance
surface
Application
Ġvigilant
ECD
Ġantimicrobial
ĠHD
ustomed
oeing
Between
odic
Ġrud
ICT
Ġtimed
Ġtransferring
annon
Ġabbrev
Ġtsunami
ogan
ĠLit
Ġintuition
Ġnanoparticles
Length
Ġphotographic
Impro
bounds
Ġhips
Ġuncle
Ġmissionaries
Ġjuices
Ġcocoa
ERROR
Ġbending
rais
ĠDin
Ġgenomes
ĠBehav
ĠFitz
Ġunve
cells
Ġlistener
keras
ĠKur
ampus
Ġcatar
Ġopenings
Ġseasoned
oarthritis
ĠTru
ĠWear
Ġincarc
ĠCharter
Ġfortified
Abstract
Ġdeities
Channel
development
Layer
Ġoccupations
Ġgarments
Ġderivatives
ĠManhattan
etta
Ġdeadlines
Ġcrashes
Ġfond
Ġforefront
ĠEpidem
ĠBenn
Ġawake
Ġ</
ĠMormon
Ġfollic
ĠWhole
hon
Ġgems
ĠBou
ĠDisplay
Vitamin
ĠMitchell
Ġassay
ĠIncreasing
Ġcommemor
Tur
cuts
government
ĠHungarian
Ġpancreatic
ĠRw
Ġbacterium
Ġresidues
Ġwrest
lang
Ġimposing
avan
Ġpathology
ĠBasics
Widgets
Ġtailor
paid
Ġdisgu
Ġdiplomacy
bery
support
Young
Ġpertinent
Present
Ġpacks
Ġspouse
Raises
Ġtribute
romb
agogue
Ġinitiation
Ġhierarchical
Ġseaw
regated
Ġsecretion
Ġspecialize
ĠTrinity
blind
Ġchess
Ġyielded
Cloud
ĠSold
ĠKer
Ġrecei
Ġphosphate
Ġnickel
Factory
ooth
Ġassurance
Ġdepressive
ĠIntegrated
phot
Ġpenetration
ounsel
Ġremarkably
funded
Ġ<<
Ġdoctoral
ĠPierre
ĠPET
Ġcared
bands
Ġtechnicians
ellectual
awi
Ġhairs
Ġassisting
Ġsorry
ĠLicensed
lee
ĠTheatre
Ġbalances
folk
Exploring
Ġcharcoal
DIT
ifers
aco
Ġsores
ĠKel
Ġthicker
oscope
ĠCollaborative
ĠFemale
Ġrecon
GC
dog
Ġtops
Ġtracked
Ġsubmarine
ettes
ĠAlternative
Ùĩ
atable
Again
Environmental
tering
apa
Ġtheorem
Ġinverte
->
nih
ĠHus
Ġobedience
Ġtriangles
Its
ints
Ġranged
Ġhappily
dehy
Ġblessings
density
Ġlays
Ġbiased
ĠDynamics
Ġworsen
ĠStorm
Ġsympathetic
ĠOffer
anim
ĠBirmingham
delay
Ġfortunate
Ġlegacies
Ġdistracted
Ġwholly
abol
Ġrests
Ġencompassing
ĠIEEE
Cost
ĠTang
ĠWes
ĠVent
olding
engue
ĠLeave
Ġascertain
utral
sync
Ġappearances
Query
ĠSweet
uled
Ġtwins
Ġawkward
ĠGaussian
treatment
ĠScre
setting
berty
allas
Ġslaughter
ĠLiterary
done
Ġconvergence
Body
Ġcontend
Ġchapel
optimizer
Sam
ĠNiger
Ġvictories
Ġblowing
ĠĠĠĠĠĠĠĠĠĠĠĠĠĠĠ
Ġtrivial
creat
mig
ĠConstraint
Ġtutorials
ĠMartha
ĠRN
Ġlegumes
ollar
Ġmiracle
ĠBir
ĠGE
Ġnominal
Ġadhering
Ġdrawbacks
ĠHarper
Ġtransmitting
Ġdispersed
onge
arrison
Ġsalaries
fp
Soft
Determ
ĠJuvenile
Ġfamiliarity
Ġcandle
ĠEvans
ĠMaps
Ġfueled
Ġsubmitting
ĠTag
ĠStanley
Ġsearched
Ġconvicted
Dir
Sun
ankton
ĠCoff
openh
ailability
Ġsincere
Ġceased
Ġsetbacks
Ġdistinguishing
aro
Ġdeity
ĠCommercial
arah
Ġfork
ĠAA
ĠSettings
Ġinterviewed
nb
ivist
Ġcarbs
Ġleukemia
idian
igg
ĠMaced
umed
Ġhonestly
kt
assador
Ġmonoxide
ĠExperts
dale
roughts
Ġtestosterone
Ġbrig
odynamics
Ġdilemma
ENTS
ĠNearly
borough
Ġtickets
acceptable
Ġexecuting
Ġundertaking
Avoid
ĠCounter
ĠLion
OWN
ocl
ĠThai
ERV
Ġcoatings
Family
EW
ĠLex
Ġheroic
insp
ĠMilky
Ġunforgettable
VII
ĠParker
ĠBehavioral
Saharan
atitis
Ġproceeds
Ġbiochemical
Ġlandfill
Ġexpressive
organized
Ġsuppressed
Ġcrying
Ġbananas
ĠLeo
Ġretailers
abolic
Ġintermitt
fitting
Ġarguably
ĠBranch
ellows
solete
Ġsurgeries
Ġcorps
Ġwarrior
ĠEthical
>"
middle
alach
Ġgarn
Ġstatistic
ĠRequest
Ñĩ
ĠPregn
ĠLl
Ġsquad
ĠPortland
Ġresolutions
XR
neigh
moil
production
gene
Ġhydrated
Ġdisappointed
ĠSolid
cool
Ġcustomary
atonin
ĠVul
ANG
ĠÂµ
rill
rout
ardships
brids
attrs
checked
ĠGriff
Ġbump
ĠEmail
Ġhydrox
since
Ġimpressions
Ġgoat
Ġexpresses
Ġmonarchy
Ġprogrammed
Ġmanipulating
Ġvowel
ĠKelly
ĠAthen
Ġmalignant
Server
Ġenlight
ä¸Ģ
ĠGirl
ĠWITHOUT
ĠCemetery
Ġafterward
RIG
ĠSpeed
agles
plementation
Ġsilly
ĠSurface
ĠMilk
Ġdisproportionately
ulators
Ġfabrication
ĠFine
Ann
ĠPole
functions
abstract
Ġallied
Ġmisunderstandings
ĠRT
Ġnewest
gray
Ġfaults
Ġregimen
Ġlamb
ĠFunctions
/%
Ġprofessions
Tag
encer
Ġfetch
ĠLever
Super
armed
Third
Ġmetropolitan
Ġintestines
((-
Ġvillagers
calc
Ġindications
Ġgardeners
ĠPreparation
Serializer
Ġvintage
ĠRol
ĠNy
ĠZika
Ġrav
azi
Order
Ġroller
ĠBalancing
Ġimpulses
Ġdorsal
idy
ĠDetermine
Ġstagn
Ġdisclosure
ĠGrass
Ġhereditary
ourable
Ġeuro
ĠLad
Ġformidable
etus
ĠRis
Ġaggress
Ġmoons
ĠCycle
Ġubiquitous
ĠSR
Ġsensible
ĠCreator
linked
ĠAcross
Ġforecasting
ĠĊĠĠĠĠĠĠĠĠĠĠĠĠĠĠĠ
usa
Ġcompass
Ġmoderation
Ġtrout
Pred
ophobia
Ġtowel
Ġbeating
Standard
etal
ĠKi
meter
ĠSit
pliance
Ġimpress
ĠStream
Ġbombing
åĽ
abe
"]:
ĠGirls
Ġclips
ĠPatient
Ġcommented
ĠBM
Ġsometime
Ġexcuse
Ġwetland
DATA
too
Ð·
informed
Ġalloy
ĠSupplement
pron
ĠRing
Ġtrades
Ast
SET
same
Ġdeprived
Ġchooses
ancel
ĠLithuan
roe
ĠFailure
urgy
crop
inians
Ġunderwent
Ġbroaden
Ġwelcoming
spl
Ġcrick
Ġbil
amas
ĠRegulation
Ġreusable
ĠQuran
pendicular
PAR
Ġadditions
ĠNoah
Ġlicenses
Dan
Ġpg
Ġladder
ĠBald
Ġspy
Ġeyeb
Ġconductor
ĠSurve
Ġirony
Ġmathematician
Save
ĠTurner
oque
Ġoutdated
added
Options
Ġtoxin
ĠMedicare
ĠSchedule
çĶ¨
major
Ġsmells
population
oval
tlement
Ġproficient
Ġmosaic
Ġarrows
Recipe
Î³
ĠRecognizing
HER
Ġshaking
Ġtwists
Ġpremise
Medical
Ġexcavation
Ġanomalies
Ġsuperv
hoe
Ġrods
ESC
ĠCoastal
Ġtravelled
.\
Ġhardships
urbs
Ġsocialism
Ġgraders
Ġted
Ġally
Ġversatility
Report
quis
Ġtimer
Ġcopying
ĠPatterns
Ġilluminated
Ġdissemination
thernet
ebra
ynamic
fixture
ĠFal
ĠGro
USE
Ġvastly
Series
Ġchalk
Ġcurs
Ġrelaxing
ĠTerms
digit
Ġowl
Obs
Ġunauthorized
Ġdebated
Ġsampled
Ġgateway
:",
Target
^^
âĹ
Ġclog
ĠTea
Ġfiguring
Ġpatriarch
Ġcohesion
mad
Ġstripes
ðĿ
Ġtails
ĠSib
ĠWays
Ġgraves
ĠGardens
Ġanarch
atican
interface
Ġheadlines
regulated
âĢĿ),
Ġpreventative
Adv
Ġstabilize
ĠLayer
ĠRichmond
ĠEspecially
ForeignKey
Ġolig
ocom
ĠWA
egrad
Ġanalyse
mate
ĠAccordingly
Ġsteering
Ġeditions
ĠDean
ĠTI
ppe
si
initions
ĠKrish
([[
ĠIncorpor
ĠInstall
members
idisciplinary
assertRaises
Ġbravery
[:-
Ġboosting
Ġshoots
Ġpostdoc
ĠSpot
Ġhurdles
character
lated
ĠTropical
living
ĠEug
utrient
Ġburdens
åĬ
Ġnap
Ġflourished
Ġswallowing
Ġsailed
ialog
ĠDragon
Ġjealous
Ġcereals
ĠMiami
Ġeps
Ġappre
Ġchairman
bishop
âĨ
iculture
balanced
aton
ĠPradesh
urer
rigger
ĠNT
Ġprecursor
nee
Ġnonetheless
ĠNeeds
unittest
ĠDys
ĠVit
Ġoffenders
prev
ĠSteven
Ġshuttle
Ġphysicists
Ġpant
Ġreminiscent
Ġtenth
Ġauction
Ġmonster
Ġoriginating
Ġconcentrating
lia
Ġcomposting
Ġgraphene
lycer
Ġspecifies
ĠExpect
Optional
Ġimprisonment
Ġprepares
Ġnicely
Ġtorque
ĠCambodia
lasses
Ox
Ġanalysed
Ġexceeding
Ġeruptions
Ġbloody
Ġdetailing
racies
æĹ
edes
Ġanecd
Ġinfamous
ĠCup
ortions
elles
ĠImaging
belie
Ġmicrobiome
Ġfights
processor
aderie
Product
araderie
ĠAmsterdam
ĠSupply
tasks
Ġredemption
acs
Ġsecurities
Ġbedroom
Plan
Python
rules
ĠAverage
ĠBudget
ĠTheore
ĠAdvance
ĠAdmiral
ovolta
Ġpresidency
lene
oku
ĠFeatures
ï¿
edar
ĠFel
Ġpopul
Ġintegers
Ġimpairments
ĠManchester
Ġculprit
MIN
arently
ĠFilip
Ġbreakthroughs
GT
Ġestimating
ĠAustralians
ĠNova
Ġambiguity
ĠMak
Ġcoarse
ĠMayo
ĠExplorer
UNT
ĠWor
ighted
study
Gui
oux
ĠBreat
Ġexpenditures
ourt
ÙĬ
ĠContinental
ĠPsychiatry
WE
Ġtransient
claimer
library
ĠSeed
BV
Eth
gering
Ġshale
Ġconfirms
Indeed
Engine
Ġbelts
Ġstartup
Ġdemographics
Ġstrategically
ĠPractical
ruits
Ġparalysis
âĢ¦âĢĿ
Ġinvitation
fuels
ĠWorksheets
Ġtread
ĠBun
Ġintros
ĠSomething
ĠSlav
ĠCharacteristics
aci
Ġeds
Ġneutron
iesel
uez
Ġurgency
Ġprobabilities
CF
reth
ĠToxic
ĠFol
ĠArchive
Ġsquash
ĠClassification
uber
čĊĠĠĠĠ
Ġmeaningfully
ĠGrace
yaml
Blue
ĠMack
ĠHearing
Altern
Ġailments
ĠFou
Ġantiquity
itutional
ILITY
Ġcomedy
ĠLI
ĠGay
Ġmeasurable
ĠBeginning
Ġhandwriting
define
Ġinsecurity
ĠBened
ĠDemocracy
Ġmism
Ġhug
chr
Ġdecoration
ĠProviding
Ġrevenge
Ġsplend
rocess
Change
Ġheavens
Ġpelvic
Hum
amph
Ġmantle
ĠIntel
Ġrecharge
Ġsuspicion
oter
Ġcalculates
SELECT
yellow
Ġamerican
Ġvolt
HTTP
edical
Ġportal
Ġcontracted
Ġweighted
Ġsquee
STAT
Ġmelody
Ġorbiting
LU
ĠGon
phthalm
encoder
Ġmelanoma
=%
Ġfines
DEFAULT
perture
nets
Ġabuses
Ġevangel
measure
Ġextremes
otheli
Ġbolster
Perm
rtype
ĠKab
Everyone
Ġta
topl
Ġdizziness
ĠDVD
Ġmarkings
Ġconductivity
Ġauthorship
runt
ĠPittsburgh
Ġstric
Ġaccustomed
ĠAlexandria
Ġcorals
ĠCorinth
ĠRosen
Ġxml
Ġenthusiastic
Ġassure
Ġflames
ĠNotImplemented
Ġvas
talk
Thomas
Stream
essori
Ġambiguous
Ġinfer
Ġduplicate
invasive
Ġimprisoned
Pan
ĠPredict
Ġmodeled
orithm
ĠCNN
dead
Ġshocking
ATCH
ĊĠĠĠĠĠĠĠĠĠĠĠĠĊĠĠĠĠĠĠĠĠĠĠĠ
Ġskepticism
Ġenclosure
Ġforestry
ĠModule
ĠCharlotte
Jewish
Ġms
ĠZimbabwe
Ġunusually
Ġbaptism
Roman
requent
ĠInfantry
ĠMorocco
might
ĠPant
Auto
gz
analy
ĠFriend
Ġrecruited
ĠBod
Ġherpes
Ġcamaraderie
Ġpervasive
ÉĻ
oratory
Ġattribut
ĠDiscover
Ġnurture
Summary
Pot
ĠLost
Ġcurv
Master
orect
acea
atha
ĠBloom
Ġpolynomial
Ġape
idad
ĠTas
Ġinterrog
gun
anation
Ġpeninsula
Ġcustody
Ġpenn
Ġbred
eston
Ġdisruptions
athon
Ġpuls
Hen
Ġpredicts
Plant
LOW
Ġturmoil
Ġcleanup
ĠSalv
OLD
Ġprotagonists
Ġitching
Ġadditive
Ġlitigation
ĠButton
Ġexercised
Ġts
racted
Ġrespiration
Ġskeptical
Default
Ġdictionaries
ĠDifficult
Ġbiomedical
Ġrevival
Ġneuron
ĠStatistical
Histor
Ġdisagreement
ĠFaculty
ĠLibraries
Ġpals
ĠBert
Ġoptimized
ĠAirport
Â´
Ġstove
Ġexhibitions
Ġcongreg
Connection
rass
ographically
Ġnouns
Recently
Ġutens
"}
orp
Ġrelent
Ġgastric
Cy
ĠStuart
ĠCommissioner
Jesus
ĠSustainability
ĠDow
ĠShi
ICS
ĠHein
Dele
Ġdifferentiated
Ġensured
Ġcompetencies
functional
bis
ĠEndangered
Ġaccepts
rah
Ġenlightenment
Ġdiscriminatory
ĠRichards
scal
Ġindustrialization
Ġpeasants
ĠMW
_.
ĠGem
Ġpreparedness
ĠLane
Ġinference
beck
Ġwidow
invalid
Ġhull
ĠYan
Ġcherry
ĠSuccessful
ĠChoosing
ĠAdvisory
Ġsterile
Bo
Ġflooded
soriasis
Ġfrustrating
Cell
READ
igraphy
UCT
uned
Ġdiaphrag
Ġlatent
Ġexistential
ĠInstagram
consider
Ġworthwhile
Ġcabbage
ĠPartnership
orable
imming
istine
ocard
ĠKil
Ġundergone
protected
Ġintervene
eracy
Ġmayor
affected
Ġcredible
Ġsedentary
ĠMontgomery
Ġdocumenting
ĠAG
Ġseated
ĠGRE
lington
Ġcinema
ipes
Ġherds
Ġesc
Ġcontacted
Reference
ĠCoalition
Ġcompulsory
Sil
Psych
llib
Ġregret
why
igers
Ġreporter
Ġcoloured
Ġfried
Ġpolitician
Ġcontracting
Ġmodular
Ġlandowners
Ġfascination
Ġsanctions
ĠOccupational
Ġjudgement
ĠBulletin
Ġdaytime
Ġviability
Ġunderstandable
ĠExternal
Ġbenz
ĠÂ«
Ġconfigured
Ġrectangle
Ġencrypted
Ġthrew
ĠSI
Ġsparse
Ġdeserts
Ġicons
Ġadorned
Ġprocure
Ġlessen
/>
segment
Ġdefendant
ĠPublishers
reaching
ĠVas
Ġeval
Ġfurnace
ÑĢÐ°
Ġbeetle
fac
ĠBour
Ġexplorer
plugin
Ġserm
itas
Ġgraphical
Management
Ġdissolve
Ġsoutheastern
Ġabnorm
ĠCircuit
Mass
dark
Ġrehe
Ġlease
scar
ĠSteps
Ġadvisable
ĠSatan
Ġmerits
Ġexceptionally
ĠHalloween
acking
ĠStrait
Ġpolluted
ĠArtists
Ġpolymers
cale
reason
ĠBurg
ĠFO
ĠLDL
Ġclan
Ġcurb
INFO
arvation
ĠMail
outube
ĠEmphas
consuming
ĠRabbi
apture
Ġrebels
Po
Ġunsuccessful
Ġrover
ĠPreservation
ĠTransform
primary
stery
ogy
ousands
ĠWallace
Ġpunctuation
Ġspp
Ġrunner
ĠClient
ĠPowerPoint
Ġunconventional
Ġlazy
Ġdistorted
ĠProperties
ĠClare
Ġphotons
Ġprogressively
Ġgranting
cn
Ġdire
čĊĠ
Ġderives
jah
Ġoffense
utory
ĠMesopotam
Ġcollects
ĠExperimental
Ap
ĠTi
Ġspherical
ĠShaw
grav
Ġarmor
rusted
Ġunchanged
Ġswings
ontally
Ġ})
ĠOrganizations
NF
iruses
Ġpainters
enes
Ġmotives
USER
ĠOmega
quisition
unal
Ġentang
Ġproposes
Working
chin
payload
Ġgoogle
ĠAtmospheric
mala
ivitis
ĠESA
Ġprominence
Ġcoursework
attice
Ġbasement
+"
Ġcarbonate
Fun
getLogger
Ġgras
rading
ĠLiberal
)",
lantic
quest
ĠNR
Ġunderstandings
Ġbehavioural
Could
Washington
raising
Vs
gold
Ġbyte
Ġspaced
Ġselfish
Ġregiment
Ġsemantic
ĠRocky
Ġcinnamon
Ġwomb
chief
Ġlecturer
Ġresembling
Ġ'',
ascar
Ġbundle
ourgeois
Ġtirelessly
Sat
Ġenrollment
vantages
Tips
ĠTao
Ġspat
Ġdemocr
Ġmissionary
ĠHindus
Prior
oct
Ġcarot
Ġcounselor
ocaly
ĠKIND
Ġsanit
Ġsolvent
ĠDisabilities
iper
sometimes
åľ
quin
ĠLot
rounded
commerce
("%
Ġmund
ĠKevin
ĠRegulations
celain
ĠJudah
Ġlettuce
Ġdancers
Ġabused
ĠNursing
Congratulations
Ġbile
Ġdroughts
sched
Ġhemp
Ġinvari
Ġconstituted
Ġmeticulous
Ġspear
Individual
Ah
respect
Ġpoorest
ĠCircle
omaly
ĠCategory
chanical
Ġmanifestation
Ġrationale
ĠCod
ggle
Ġbrowse
Ġinconsist
ĠSut
Ġprosperous
Ġmunicipalities
Ġenrichment
ĠDIY
ÙĪ
Ġwines
Ġnec
ĠMedicaid
Ġexacerbate
anus
ibular
ĠArduino
ĠÐ²
negie
Ġesophagus
ĠHend
ĠRs
Ġshining
ĠAlban
CoV
/"
emann
ĠMeteor
George
education
GH
ĠATP
Ġexting
Ġparliamentary
}'.
ĠHat
ĠGates
Ġchores
ĠDoctors
innitus
×ķ
Ġlending
ĠBath
izards
Ġtoddlers
Ġpall
posium
Ġcontractors
Ġsigma
Ġfals
etc
Ġtransporting
Ġlaund
Ġprogrammers
ĠWag
ĠEagle
Ġunravel
Ġinscription
ĠAllies
Ġirrevers
ĠManufacturing
wrap
Ġtect
irling
ĠMul
Ġclue
Ġsupplying
Ġpunished
Ġcrews
Ġpersuade
Ġpeacefully
ĠCheroke
ĠOrganisation
ĠPanama
Ġdistortion
Ġadmired
Ð¾Ð²
Ġsemiconductor
fills
ipel
Ġadvertisements
ĠĠĠĠĠĠĠĠĠĠĠĠĠ
Ġexcessively
Ġtransplantation
dehyde
Hyd
ĠProdu
"][
ĠAugustine
ĠDivide
Ġtravers
Ġjoke
?âĢĻ
MRI
åº
Ġsubmerged
Ġrebuilt
utan
Ġalcoholic
Ġnavy
Ġrevolt
fname
Ġcact
itious
acchar
Ġtoddler
Ġtan
ĠChoice
designed
Ġvolunteering
Ġmystical
ĠHarmony
Fire
lead
ĠReformation
Ġperiodontal
Er
Middle
VR
ĠMyanmar
compatible
Ġknot
lecting
Ġsums
ĠPine
Ġcans
Ġleague
Ġregisters
Ġproponents
ĠWide
ĠConnections
aning
ĠFruit
ĠAdobe
ĠMarketing
harm
Ġequival
Ġirrational
Ġprobiotics
Ġpreventable
Ġsqueeze
ĠBrooklyn
mith
Ġcott
oxy
Ġeconomical
ĠRespect
ĠDoing
Ġsinger
spot
ĠPrivacy
urious
INS
Ġtuition
ĠOriginally
ĠTesla
Ġborne
ĠSAT
asso
protein
Ġpacking
ĠPolar
ĠWhenever
Ġbiting
ĠCu
Ġconfigure
ĠPerspective
ĠUtilizing
Ġexaggerated
Clean
Ġlocks
secure
ĠRadiation
Ġbuilder
Ġrevital
ĠTypeError
Ġconveyed
Ġlamin
ĠDM
ĠElder
sided
Ġcush
ĊĠĠĠĠĠĠĠĠĠĠĠĠĠĠĠĠĠĠĠĠĠĠĠĠĠĠĠĠĠĠĠĠĠĠĠĠĠ
Ġdenying
ĠTreasury
Ġpuppy
ĠStewart
Ġslu
Ġsewing
rising
those
Ġvertex
]/
Ġ')
translate
oust
Ġinfancy
export
ÃŃs
Ġundesirable
cand
ĠPharaoh
ĠCareer
Ġfishermen
Ġhierarchies
Ġquar
ĠTraffic
Ġmigratory
Ġvertebra
Protocol
sil
Ġendocrine
coords
panish
naments
Ġpraised
Ġsheds
Ġsatisfactory
wheel
Ġrecurs
ĠVatican
Ġsupervised
Pool
Ġnortheastern
ĠBond
ĠBuck
ĠGit
ĠThought
adj
Ġinfestation
Ġweighed
ĠWel
Ġcompile
ĠWheel
Ġtolerant
>",
anza
Ġresent
ĠIncrease
iso
astrous
aja
Ġbeaten
urom
ĠLas
Ġdonate
ĠChapel
ortic
Ġengages
backend
ĠÎ²
Ġstimulated
Computer
Ur
kan
ipper
evolving
xuality
arnation
Ġgeneralized
Ġsweep
Ġhomeschool
gre
Ġpens
Ġoverflow
Ġdeficient
purpose
ĠHughes
iotherapy
plate
ĠVirus
ĠConstitutional
Turn
Ġcompose
Ġdetention
ĊĠĠĠĠĠĠĠĠĠĠĠĠĠĠĠĠĠĠĠĠĠĠĠĠĠĠĠĠĠĠĠĠĠĠĠĠ
ĠDemonstr
depend
Ġlowers
occur
Ġthinner
ï¿½
Ġpiles
Ġorphan
ĠNar
setter
Ġconspiracy
Document
ĠCAD
Ġcurrencies
ĠPeoples
ĠWWII
Sn
Ġinduct
Ġstairs
Ġcalibr
ACH
orum
Ġthematic
Ġ:]
ĠApproximately
Ġprofoundly
ĠLieutenant
yards
ĠHemisphere
Ġarous
inently
Ġont
orers
Ġbuilders
ĠQual
adjust
ĠHond
means
Ġrouting
Ġnuclei
ĠLabel
Ġhints
anding
orneys
omo
chrom
ĠLisa
Ġfactual
ĠPluto
Ġcray
ĠMasters
ĠIsaiah
eight
uristic
ĠReef
Ġpurification
Ġwartime
lett
mot
ĠMining
ĠMamm
intensity
Ġproceeded
Ġlesbian
Ġlumber
ĠMerc
Ġresiding
Ġcoerc
Ġveteran
ensen
Ġsustaining
Ġreplen
ĠIncome
brand
Ġtribut
Ġgn
ĠCome
Ġwinding
Ġtriggering
ĠCarlos
ĠNATO
Ġpushes
LI
Ġlane
ĠConfuci
ĠDifference
ĠLiu
ĠGuy
Ġsquirrels
tens
Ġstair
ĠCriminal
Ġmodalities
***
Ġcruise
Ġeczema
ĠNHS
Ġmigraine
Ġdormant
cig
renched
asonry
Ġsubstitution
Ġchore
ĠRyan
Ġacknowledges
Ġblown
Ġmonumental
Ġost
ĠAuthent
ĠLaura
gated
ĠHerbert
ĠONE
critical
Ġdyes
Ġboots
Ġkinetic
Eval
Ġrefresh
ivided
Ġpretend
ĠDevice
)],
aq
sten
Ġcalming
Ġobservational
bc
ĠAlpha
Ġgeothermal
ĠiPad
rf
Ġnarc
Ġperpendicular
Ġformative
Ġriders
Western
ĠCoc
ĠNad
clinical
Ġreddish
ĠJake
Ġcostumes
align
Ġdefended
ĠRein
Ġelevate
Ġridicul
Similar
Ġconjug
socket
ĠKo
Ġhelper
Ġlottery
Ġgranite
}$
Ġrestrictive
Often
beans
Ġmammal
moving
Ġoh
Ġnoisy
arguments
Ġcathedral
Ġinvestigator
Ġpouring
Ġproductions
cit
Ġgrammatical
Law
ĠGrow
transpose
faction
Ġclustering
Ġlately
Ġdiscol
Ġhardy
Ġoptic
suff
icture
oplast
Ġclo
Ġliable
iquette
ĠCommerce
Ġkingdoms
Ġpuberty
ĠCats
ARCH
Ġslows
Ġmouths
Ġpigments
Ġnormalize
Little
oulder
("--
Ġcounselors
Mad
business
cases
Ġnotification
Ġuniqueness
something
ĠDiscovering
Bot
Ġprognosis
Ġstatute
Ġassertion
Ġsweeping
Ġaccomplishment
ĠIdeally
progress
!")
Ġmissiles
Ġscripture
ĠNathan
needed
obiles
Ġrotor
Ġintertwined
orectal
Ġeras
Ġfeminine
ucking
similar
ropolis
ingles
ĠPere
ractical
ISH
ĠHistorically
Ġvault
radius
Ġtimestamp
Ġobstruction
Ġastonishing
would
ench
Ġonwards
Ġblamed
Ġmediation
Ġviolated
Ġfortress
Ġvocational
Ġinvestor
helper
etermined
Ġsights
Ġadvisors
Ġarid
Ġchimpan
Ġsarc
Ġprerequ
Ġthoughtfully
Ġaspirin
ĠMead
ternally
Ġbride
Ġvaccinations
Ġconfidentiality
Ġalliances
Ġstunt
ĠPlastic
idding
Ġdiagnosing
Ġreferenced
Ġscaled
Ġthrows
Ġrealise
Ġoppose
Ġdevil
TIME
Ġtrajectories
ĠPollution
uffs
Ġadmiration
Ġscattering
asket
Ġtrademark
Ok
ĠÄ
Ġobsolete
Ġconfuse
ĠDomestic
)\
Ġtart
ĠArray
ĠFarmers
certain
Ġexperiential
ynes
Analy
Ġbilateral
Ġfolded
Ġnegotiating
Ġlawsuit
facts
Ġsunshine
Ġseparates
ĠAnyone
ĠComparison
Ġhort
Ġ[{
âĢ¦]
ĠUpdated
Ġimperialism
Tem
erately
Ġfills
ĠWid
ĠWave
Ġsuffrage
imo
Ġobl
ossibly
Ġaffinity
Ġfiling
handed
Ġfn
Ġoutwe
atered
acid
ĠCoron
Ġaromatic
Ġreperto
ĠGrid
Ġurging
ĠEco
Ġrainy
IGN
Ġtranqu
uli
Ġconditional
Ġcrab
Ġbonus
RNAs
Ġsta
Ġhedge
arine
Ġnullable
Ġdisastrous
fired
avoid
sexual
Ġevacuation
Ġladies
OB
ategy
////
witz
Ġgreener
constant
Ġprowess
Ġpaving
Ġ"[
Ġcanine
plastic
ĠReagan
Ġwrink
ĠIbid
ections
ĠBrist
Ġdiagonal
Ġbasil
curricular
ĠReduction
ĠRestoration
Ġarticulate
ĠRachel
Ġbran
Ġaligns
Ġdermatitis
ĠCord
Ġrelativity
avers
jour
pse
Ġhone
Ġdrained
ilian
ĠWoods
Ġmillennia
Ġeigen
otrop
ĠHipp
ĠLung
Ġrainbow
ĠPotter
Ġtheta
ichi
Ġunite
Ġacron
ĠRelease
Ġdrastic
Ġmeanwhile
Ġprofessionally
Ġcornerstone
ĠRomantic
pipeline
GD
ĠPrevious
Loss
pra
istered
ĠCollaboration
Ġwipe
Ġregener
ĠBee
Ġdecorations
Ġmigrant
Ġguardians
Ġhorns
Ġusable
Ġinfertility
Ġaffair
ĠViking
Hol
RY
woman
Ġmalf
randint
Ġvitality
ĠHamlet
anne
ĠHz
entric
ilitary
Ġ"{
ovo
skin
ighthouse
Ġmaple
ĠBasically
Ġcakes
peace
Ġoutright
remote
ĠMidwest
Ġpension
Ġspeculative
()]
Ġcomplexes
.',
Ġhuh
izontal
Ġconstraint
Ġrhyme
ĠBronze
Ġsketches
ĠCha
ĠYOUR
Attribute
Ġadhesive
ĠFrances
IDE
Ġtrustworthy
Record
ĠKum
Ġfrank
Ġhonored
trl
Ġgrouping
Ġwildfires
Ġcounterpart
ĠMetal
Ġhorizontally
ÑģÑĤ
ĠRogers
ĠPoverty
ĠGrey
Ġbeforehand
Age
Ġlac
ĠFib
endered
Ġinvaders
Ġinterst
exceptions
IE
enario
Ġlur
scan
ĠCalvin
Ġpackaged
Ġvenue
ĠRhode
ĠAaron
ĠFlat
Quant
Ġfoil
Ġatten
Ġcarving
']))
controll
ĠSabbath
mul
ĠInn
Ġhybrids
ĠAmy
Ġholders
ĠIdentification
rinted
Ġcancell
Ġrelational
Ġsliding
ï¼ļ
âĢĿ?
Ġfamously
ĠStrategic
engineering
Ġsubscribe
brow
arations
Ġsolace
ĠLocation
Ġhydration
Ġtasked
Ġreproduced
Ber
Creat
Ġppm
Ġimplicated
Ġauthoritative
Ġunwilling
ĠAnalyzing
cod
Ġcomposers
hig
Ġhose
ĠActually
push
imet
oslav
ĠDH
Ġworkings
important
Ġexecut
Fre
Hub
Ġentrepreneurship
Ġligaments
JECT
Ġboiled
ĠPerfect
ĠCarn
ĠVik
culture
isha
oxin
Ġmaximizing
Ġeliminates
ĠExtra
Ġglaucoma
Ġgrids
ĠEdge
Ġadvisory
ĠSummit
Ġlegitimacy
fail
Ġdisposable
inx
Ġatop
Ġ______
communication
Ġchampions
itality
Ġwoodland
again
iko
ĠConstantin
Ġlump
Ġpatrol
Ġsequential
ĠFuk
Ġanticipation
Ġattainment
ĠAbsolutely
Prom
watering
ĠOlder
ontology
Ġacidity
Later
Ġarena
ĠMale
Ġretros
Ġboiler
ĠMontessori
Ġvertices
eming
ĠObviously
Institutions
ĠAuthors
intensive
Ġquartz
ĠApproaches
Ġforaging
ĠCIA
archive
Ġshowcases
Ġlaptops
esthetic
ĠLip
Ġfounders
Ġdrills
Ġpercentages
=\
ivating
ĠLiv
Ġstealing
sha
Ġdoctrines
Mor
Position
vents
props
ophysical
Ġreverence
Ġnucleot
ĠDrugs
ĠCause
ĠPont
ĠLLC
Ġwasting
âĢĿ;
ĠProc
behavior
inai
ĠVolcan
ĠReviews
éĢ
ĠExamining
ĠAstronomy
Ġinforming
USA
anthrop
edged
Ġjointly
Ġdrains
Ġcoats
Ġcollaborators
yst
udence
Ġinflux
Upon
Generally
Ġaccelerating
Ġleakage
ĠLandscape
ĠRig
Ġstellar
Ġfourteen
enguins
complex
ĠPoints
munition
cnt
Ġsynd
Ġpersec
ĠTwenty
missing
Explore
)',
Indian
ĠMongol
BUG
apache
eca
Ġclearance
Ġsync
ĠAPA
STEM
Ġcomparatively
Ġdiscouraged
ĠSomeone
Ġpige
Ġvoter
"},
Poly
Ġasylum
Ġrenewal
Ġcosmos
background
Ġcontrollers
Ġpetals
Simple
ĠShip
Ġconnective
Ġdensities
past
atts
Ġbiotechnology
Ġdigitally
dp
mix
Ġsuck
uador
Ġfolding
Fs
lst
ĠSession
rylic
Less
Ġemig
Ġrepay
ĠExpert
smart
ND
ĠBound
ĠInuit
brance
Ġornamental
angar
Ġgeomet
impro
amic
ivari
Chinese
Ġarchitectures
ĠâĤ¬
Ġfaulty
ĠRoute
Ts
cribed
artments
ĠZen
Ġdelegates
Ġadviser
Ġborrowing
Ġsoybean
Ġaugment
machine
Ġpending
adan
ĠPion
Ġcrest
rystal
Ġdecentralized
ĠFly
ongs
ĠStudio
Ġcapacitor
Ġdepictions
Wild
ĠDeut
Ġhardest
Selection
ĠArmstrong
Ġfeasibility
Ġcatheter
Ð¹
ĠWebsite
Tom
tu
Ġspor
ĠGods
Ġoval
Ġunintended
icc
############
Ġpsychotherapy
Islam
Ġadjective
Parents
Ġdepleted
Ġplumbing
Along
partial
ĠRus
ĠRick
ĠNJ
agascar
ĠEdwards
intern
ĠHomer
ucked
Ġexported
secondary
Batch
Names
ĠThan
Ġrevisions
Ġabolished
Ġilleg
Ġtwisted
Ġpri
Ġinward
olin
ĠTE
ĠBiodiversity
ĠExped
Ġyummy
Ġmultidisciplinary
colm
ĠDenver
Ġsporting
lar
Initial
ĠBach
Ġtornado
Account
boy
itories
Ġrap
ĠWritten
arbons
jobs
soon
Ġrifle
Pay
wt
rama
Ġsynonymous
sal
Ġrim
reduce
proxy
Ġsurprises
ĠConcern
}:
igmat
ĠQuantum
Ġassemble
Ġhelpless
ajo
Ġmilestone
Ġgroundwork
Ġknots
guard
Ġmonopoly
Ġanonym
Ġmilitia
Ġsweating
ĠWool
plicates
ĠIndonesian
otation
ĠRanch
Ġcryptocurrency
Ġmoth
ĠWu
mium
wic
Ġtrainer
rological
Ġcorrelations
ĠSend
ĠCharacters
ĠIvan
ĠBanks
Ġtyr
ĠFisheries
Ġstarvation
modified
Ġseminal
lance
Ġrevel
ĠMeg
Entry
iduous
Ġempath
bek
ĠWhereas
reported
ĠGradually
Ġhardship
ĠIbn
izarre
problem
Ġglacier
African
Ġgenera
Ġendors
filepath
etooth
pty
Area
osocial
ĠYug
Ġbreaths
adv
ORK
Ġtensorflow
Ġpirates
inel
Ġinorganic
icable
ĠTuple
Ġperimeter
ĠEssentially
Ġdentists
Historical
Ġcruelty
cum
Ġ----------------------------------------------------------------
ĠBomb
ĠKnight
Ġoppressive
ĠIraqi
Ġunhappy
ĠDave
ĠKon
Ġintercourse
Bio
ĠHO
Ġredness
Ġidol
Ġhelicopter
à¨
ĠCompared
ĠAcad
ĠSomalia
Ġtoothpaste
ennon
Ġinflamed
Ġexponential
Mind
dn
tor
Ġorganizers
Ġkindly
origin
osomes
ĠKin
Ġchemically
haus
Ġhopeless
ĠRomania
Ġlonely
ĠMessiah
LICENSE
ĠPars
ĠBalk
ĠNancy
Ġentropy
ĠÏĢ
Visual
ĠHoney
dense
amines
Ġoversee
Ġsummarized
Sty
Ġhorr
Ġdisadvantaged
ertiary
stim
ayana
ivorous
Ġmagnets
Ġcosmetic
hythm
ĠVector
ĠReconstruction
ĠRush
Ġtuning
Ġinsult
Pers
nick
Ġoverhe
ĠIdea
Tech
ĠLem
Ġpend
Ġframing
Ġspectrom
Ġshocked
ĠBaltic
Ġpolio
Ġdubbed
ĠAer
Ġoffline
oka
Ġfluency
rowned
grand
seg
agne
untary
Ġpastoral
ĠUSD
Ġmentioning
Ġchaotic
inine
ppings
Ġprobes
ĠNeurolog
ĠUSSR
Ġgarment
Ġtunes
ĠIX
Ġsupers
climate
Ġretains
Ġcelebrates
ĠLeader
ĠEmerging
ĠDiss
Ġcalves
AMA
rites
byter
Ġheartbeat
Ġobliged
Born
igms
ĠRalph
Ġexhaustion
ĠAyurved
Ġpollinators
olerant
ĠYemen
ĠShar
minster
Ġtriangular
-------------------------------
Ġdischarged
Ġhockey
Ġshirt
Ġnationality
Ġdiminish
Ġbinds
ĠCere
ocon
Ġmidnight
Ġdictators
Ġfertilization
chronous
ĠCharlie
rocy
ĠNixon
Ġcamping
Ġgallon
Publication
sequences
Ġjokes
ignore
Ġbathing
Ġweighs
Ġloneliness
holm
ËĪ
omi
ĠSaints
Ġrepent
Ġundersc
Want
Ġunle
Ġprohibit
bye
Ġshortest
Ġguideline
Ġpreceded
union
Ġcontempor
Ġamp
Ġassists
Ġmorally
flowers
Ġaffiliated
Robert
Cir
ĠEar
Ġsuburban
ĠExamination
ĠGoing
Ġdisruptive
á»
abc
Ġprogressed
ectomy
ocracies
Thread
Ġinhibition
ĠLevels
Windows
Ġhippoc
Cut
qdm
Ġelectroc
Ã©n
Ġspikes
Ġindiff
Ġapplicant
Ġamplify
ĠBone
Ġbishops
Ġlandfills
Ġfolds
ĠAnalyze
ĠCSS
Ġcane
Ġepigen
Ġnamespace
Ġpleasing
Ġassassination
ftime
Ġthreatens
Ġclinically
Redu
internal
Ġpants
Ġbourgeois
berger
Ġapprove
Ġreinforces
Float
[(
Ġcompiler
ISS
Ġestablishments
Ġmultiplied
ĠNotImplementedError
Fr
Ġmanners
ĠPrec
isode
oodle
Ġflank
Ġcircadian
innings
ĠKashmir
hart
AE
Ġsewer
ĠYu
Ġrunners
Ġrainwater
ĠChan
Ġprotons
IDs
ĠCarm
Ġwarmly
anto
âĢĿ:
ĠMatrix
Ġinterrupted
iang
roids
ĠCad
ĠFREE
Ġnoct
Ġsuprem
kets
ceptual
visual
ĠDevices
Ġdegraded
ubes
ĠVPN
Ġbiomark
Ġmitochondria
Ġelectrolyte
ĠSocrates
ĠMI
ĠLuck
ĠNortheast
á¸¥
Ġmelodies
ĠBuy
ĠWonder
Ġrecalls
Ġbowls
jet
ageal
ĠOg
Ġscissors
Ġsufferers
helm
driving
Ġincorrectly
Sample
eas
Ġfibr
Ġhostility
Ġbreasts
Ġmiracles
ĠUtilize
Ġdrunk
ĠNotably
Ġoz
Ġcyst
eyer
Ġdebilitating
ĠNeigh
Ġsugary
ĠGaz
Ġfibres
Ġseventy
ĠOwl
NUM
ĠToy
ĠBent
Ġresign
Ġpathogenic
fruit
|'.
TM
examples
oscopic
them
Ġpumpkin
Ġmigrated
Ġpedagogical
Occ
Ġcouncils
odo
million
erie
Ġlanes
cemia
Ġhelm
iota
Ġsyllabus
ĠVincent
Land
PF
Ter
ĠNIH
Ġrides
Ġamazed
Ġinsertion
NAT
Ġgrasslands
ĠWisdom
ĠGuatemala
Ġcontractor
asionally
Ġtranslating
Ġjumped
ĠWITH
cancer
Ġpent
Ġstitch
ĠSor
ĠHoo
Ġamyl
casting
Ġcatering
Ġbrowsers
Ġmarched
asg
branch
ĠImag
Ġconveying
urate
ĠBelt
ĠYam
Ġbrew
ččĊĠĠĠĠĠĠĠĠĠĠĠ
Ġstandpoint
Ġbenefited
aeus
Ġsilica
Ġoccupies
Ġio
Instruction
Ġenriching
BY
Ġvap
ĠNine
proc
Ġstreamline
Ġchiefly
Ġsuperiority
ĠPhoenix
Works
wy
athetic
Ġtray
assic
Ġaggrav
Ġreacts
him
Ġreservation
Ġsubspecies
Ġallowance
Ġfacet
Ġoptimism
Ġpencils
sorted
Ġcute
Ġpreferably
ĠHarold
audio
ĠIntegrating
Bal
ĠBright
Ġgeo
ĠHarvey
Ġastronomer
ĠHonor
ĠRise
Ġhighways
Ġabsorbs
lap
Ġdishon
itans
Ġpersisted
Ġproprietary
wart
ĠGary
Ġshear
ĠKaren
inoids
PRE
Ġsorrow
ĠAnswers
ĠInstance
Ġdomination
ĠTurks
Ġsurname
Har
atization
Ġstatutes
Ġmanipulated
Solar
Ġretinal
Ġceramics
ĠInsect
âĢĿâĢĶ
ĠTransition
Ġcoordinating
Ġturbulent
ĠCarnegie
Ġhood
Ġconfine
":"
Ġsexes
Ġwidget
Coll
bai
ĠVoy
ĠScout
optic
nm
Ġchords
ĠLanguages
bg
Ġaverages
Ġcess
ĠInvestment
ĠWow
uebl
Ġsnapshot
ĠPersia
Ġpipelines
Ġvern
Ġcentimeters
Ġairplanes
Ġcancerous
igmoid
merse
axy
ĠShen
extension
Ġcatal
Ġrigor
Ġcooperate
Ġvines
Ġoptics
Ġspecifics
itarianism
ĠTodd
urous
eworthy
Ġrevise
Ġinformational
Ċĉĉĉĉĉ
Certain
nature
Ġrinse
Ġupside
THER
Ġcondemn
ente
ĠCounsel
Ġunreal
sson
("-
targets
Ġrepaired
ĠPlaces
Ġparasitic
Ġimplements
Ġclauses
Ġba
selection
Ġunacceptable
trade
ĠHundred
ibia
ertil
Ġaddictive
Ġgears
initialize
uding
Ġenerg
ĠIsn
ĠAbove
Ġfatalities
ĠPyram
ĠFactor
waters
opal
ĠPrinting
ĠAzte
inalg
kar
ĠTed
usch
Ġindividuality
ĠMetropolitan
Ġtapping
ĠCave
RECT
Ġempires
aspberry
Loader
ĠLenin
)âĢĶ
CAS
IZ
Job
enne
luence
ĠImplementation
Ġsixteen
Internet
ayer
Ġrally
traditional
ĠBritann
Ġerg
ĠEmployment
miah
Ġslowed
Ġsplitting
ĠPolicies
Ġdissent
Ġdispose
Ġlogged
ĠScots
Admin
ĠArnold
Mary
sci
oodles
ĠRehab
Ġmonk
Ġaffiliation
Ġhopeful
Feature
icates
Ġmangan
Ġrugged
Ġexpeditions
Grid
ĠMann
ĠHamm
Ġplank
ambia
Ġcommunicated
Returns
Ġnecessitating
Multi
Ġanalogous
MET
~~~~~~~~
Frank
feld
Ġpope
ĠAndre
Ġtagged
Ġphilosophies
ĠVenezuela
ĠFiles
Ġdeclaring
Ġhemoglobin
atenate
Fund
stad
Ġcanned
ĠMedal
particularly
Ġwaited
ÙĲ
Ġplayful
ĠMini
Ġwitnessing
East
âĤ
icals
Ġgeopolitical
Ġceremonial
Ġutensils
Ġvivo
upon
venous
Ġantique
Ġingestion
References
prisingly
Cr
Ġpits
ĠTM
ĠBec
ĠRica
Ġtyph
ĠMeasures
Ġcustomize
Ġtendons
uki
Depending
chel
Î·
Ġlou
Stop
Ġcoordinator
ĠWriters
Ġfermented
ĠFifth
ĠSites
Ġproclaim
ĠAnglic
structured
ĠRic
ĠNash
ĠHerod
ĠJulius
Ġammunition
ĠPrison
ĠReader
lier
ĠHands
ĠYourself
Ġrheumatoid
Business
Ġsender
Ġlandl
Ġcollar
ĠTimothy
Ġcensorship
ĠLimit
opts
ĠLis
ĠFR
Ġcontinuation
Ġattracts
Ġtuna
Bur
mand
Î¸
cemic
cipline
Ġorthodox
ococ
rizes
ĠTasman
Ġinefficient
ĠFro
centric
detail
ĠOttawa
atri
ĠConv
Ġrevolutionized
ĠTCP
Ġjungle
Ġprimates
Ġpropulsion
Ġrhythmic
Ġembryonic
Ġexpelled
ĠÃł
Ġcorrections
Ġninth
termin
Ġrack
Ġhumming
whether
Ġtaxa
Ġhalluc
evaluate
Ġè
Ġantis
ĠAfro
ĠZeus
ivable
('%
Ġstained
Ġopts
ĠReddit
Ġcontrasts
Ġsam
Ġgor
operator
ĠBeautiful
ĠVa
Ġsupernov
Ġeighteen
feedback
Ġmuscul
eating
ĠSid
Ġvenues
Ġdisinfect
Ġmundane
ccentric
Ġbackend
Ġembodies
Ġhonoring
Ġrockets
alism
ĠWelfare
ĠArabian
ĠUses
Ġlun
ĠIter
Ġrefusal
Ġcytok
Ġmorphological
Ġunethical
Ġswap
Ġdenote
Ġdisposed
closures
oplan
Ġflawed
ĠHair
Random
Ġhumanities
)](
scre
Äĵ
ĠWarm
acht
Ġendomet
ĠEngagement
Ġswine
WARE
Ġdeepest
Ġconverter
ĠImproved
Ġwandering
Ġsep
Ġtowering
ĠLOG
Ġpresently
live
Ġfade
ĠPerform
sr
Ġdre
Ġconserving
ĠAntib
student
Ġrede
ĠFasc
infected
omans
Ġdesp
Ġcob
logs
ĠSherman
accuracy
SEC
Ġsway
Ġgrassroots
Ġprivileged
Ġheavenly
Ġfootprints
Ġretrieval
ĠFuel
Ġillicit
ophical
Ġdictate
Teaching
mediated
latest
Ġmushroom
ĠVeterinary
Tests
asured
efit
Ġinfringe
Ġspecificity
Ġembarking
ĠObesity
Editor
:"
Ġoutlining
Ġlinguistics
Ġcompartment
Ġmoderately
Ġantip
Ġjoins
sch
Ġbeginner
ĠPersonality
wb
Ġindividualized
')[
Ġencode
hetically
Ġaperture
ĠOracle
Ġinvade
Ġprophecy
Ve
imir
Ġglean
ĠAppalach
Ġsouthwestern
Ġsands
Ġscreened
ĠDietary
ĠBrigade
sig
Ġprofitability
Ġrites
ghai
Ġendured
estead
jected
Ġhelium
ĠNeural
ĠEcuador
ĠFamiliarize
ĠSport
ĠUnits
ATED
Ġsandwich
ĠPrinciple
Ġhemat
Ġensemble
ĠWells
Ġneighbouring
material
Ġë
Ġpt
Ġaroma
ĠVeterans
ĠConstantinople
Card
EU
ÅĤ
ĠBag
ĠBenedict
Ġbeast
osting
Ġcliff
acked
Written
yon
itant
ĠOriginal
Ġcarcinoma
arial
Ġmodulation
ullivan
ukary
provider
Ġmetaphors
Ã¯
Ġcords
Technology
ĠSales
Comb
Ġmasterpieces
scatter
Active
arta
Ġtopography
ĠInto
ĠBrothers
ĠBristol
Ġfins
urized
oche
udes
Ġunused
ungal
ĠCONDIT
Ġlaundry
:',
Hard
ĠSY
oderm
Ġshred
Ġpresidents
Ġbotanical
Mel
Would
ĠTap
ĠRequired
ĠPhillips
Ġbisexual
ĠTrauma
rendered
stroke
ĠAur
Ġclots
soever
ĠShiva
ĠCohen
Ġexcavations
ĠPF
ĠHeavy
Ġfragmented
Ġmanganese
lb
icator
getter
Ġinsol
Ġsuperst
AAAA
stderr
ĠEis
ĠJoan
Ġbrace
ĠSerb
Ġdistributing
ĠCopper
ĠFriedrich
ĠPunj
Ġquo
argon
Ġrepell
Ġguardian
Ġcones
Ġflare
EMENT
focused
Ġpersists
Ġhib
Ġspice
Ġsentenced
Ġgeologic
ĠChrom
Ġpolished
ĠMadagascar
ĠLEDs
Ġprestige
hook
repos
ĠmRNA
Ġunderrepresented
ĠVariable
binding
Ġneo
Ġresides
Ġshoreline
Ġmajestic
Na
asse
Ġsells
Wood
Ġmetamorph
Ġfracking
Ġcrocod
'+
inarily
isch
outer
Ġrepertoire
ĠMatters
ancellor
Major
Ġducks
ĠCurt
Ġvoluntarily
ĠEmbrace
ĠGraphic
doctoral
Ġscram
ĠDetails
Ġgradients
ĠTourism
Ġrearr
Ġcares
ullah
ĠPublication
Ġoriginates
ĠReferences
Ġapprentices
stead
Ġoverdose
Ġhardness
Ġdestined
Israel
Ġfragmentation
ĠEvaluate
Primary
hours
peak
Ġnotify
Ġconsciously
Ġirrad
Ġpregnancies
Ġbasins
ĠHenri
ĠCherokee
Very
Î¬
Ġdisks
inda
ĠKor
Ġpointer
could
ĠJa
Ġunderp
porter
ĠShape
Ġcrushing
Ġconsulted
Ġrebel
Ġmastered
Ġbiographies
digital
Matrix
Bul
oufl
stri
ĠIMP
Ġdisob
Ġpores
aptic
Ġamphibians
Ġerupted
OF
ortex
Ġroses
umping
ĠPalm
ĠEcosystem
unity
Ġcler
Ġpumped
Ġmultiplying
ĠGhost
Ġspecifying
Ġcommonplace
Ġpostp
STM
ĠMaintenance
dropout
ĠPHP
Ġlover
ĠChin
Ġscrews
Ġsnails
Ġoverlook
Ġseventeenth
Ġcubes
Starting
Aud
ĠBasil
Ġinspections
ĠRelationship
ounces
contract
Ġcramps
Ġingenuity
enberg
essential
ĠSevere
Ġmillennium
Ġbureaucr
Ġrighteousness
ĠPrag
ĠMicrob
Ġrubbing
Ġprohibition
ĠDrinking
Ġfibrosis
fif
sat
oprote
ospels
oskeletal
ĠMao
osomal
Ġsummers
Ġconnector
ĠGross
ĠProfile
Ġsympathy
ĠReserved
ucker
ĠMode
formatics
ĠWorkshop
maps
Ġowe
ĠFlex
__.__
ĠFigures
Ġcommemorate
physical
Ġambitions
ĠModeling
Visit
Ġbenchmark
Mo
until
Ġinsightful
Ġshutil
ĠTraditionally
åĩ
ĠSoc
ĠDallas
Ġpatrons
Ġdevise
autical
Ġsaturation
ĠAdvoc
Ġdragons
Continue
Ġconstituent
gpu
ĠAttribution
Ġuncertainties
Ġsulfate
Ġfructose
Ġdeformation
ĠHorm
osexuality
Ġtrapping
Ġamended
---------
Ġadaptable
Ġrequesting
Ġdimensional
Ġasteroids
Ġculminating
erential
DateTime
LAB
ĠSpread
hyper
Ġmediums
ĠAudio
Ġdiaphragm
Ġbursts
Ġdissip
enance
Ġfeudal
attention
Ġregulator
ĠOfficial
Ġparsed
rason
Ġau
Ġker
ĠIngredients
ĠBuffalo
$,
Ġbury
Ġregistry
Ġmatt
letes
ĠDataFrame
Ġmythical
Ġafore
Ġlupus
ĠBru
identity
Ġingested
Ġhue
Ġretard
ortune
Ġwallet
Ġextingu
NP
ĠPowers
ĠHV
ĠLamb
actual
ĠArchaeology
olved
ARC
ĠDifferences
AK
ucc
à¤¤
Ġscars
Ġrefusing
Ġdrow
Ġgarage
Ġgermination
Ġnationalist
ĠPeak
Ġyielding
inety
Ġsinking
Ġagility
ĠDisability
ĠHolmes
Ġalerts
zh
ermost
Ġpolite
Images
ĠRemote
Ġparadigms
Maybe
................
Ġ])
itiveness
Ġgalleries
Regular
Ġillumination
Ġrecurrence
ĠPeer
ĠDipl
Ġglacial
Ġwreck
ĠTony
Ġmosque
Ġexplosions
violent
Nav
ĠAw
ĠMoving
prus
ĠSpiritual
ĠExerc
ĠZo
Ġspreadsheet
Ġphotovolta
Ġenchanting
BUT
Personal
Ġtheolog
Ġautistic
Ġworkspace
Ġplat
ĠDaw
achi
ĠFathers
ĠGrammar
Brown
Ġquestionable
ĠLancet
uously
ĠLux
Ġquarant
Ġdemise
ĠPod
ĠAlgebra
Ġcracking
Ġattachments
official
Ġirreversible
oped
Ã¨re
Ġhath
vered
formal
Ġexcavated
later
ĠVlad
ĠImam
Ġboarding
ĠSocialist
Ġliabilities
Ġsubgen
Ġcrabs
ĠInteractive
ĠSpeaking
protocol
Focus
Ġspills
identified
ĠAuton
Ġinsignificant
City
wx
Â¢
Ġbrightly
Ġrestart
Ġtroubled
Ġhonors
hov
Ġbizarre
idates
ĠRy
INTER
Ġtoug
ĠHabitat
ĠProbably
Ġreclaim
raz
ĠBeg
Ġransom
Ġsentiments
Ġasserted
ĠBurma
Ġfuse
ĠMob
Ġlactose
Ġč
ĠÃ©
Ġhive
ĠVed
ĠHunter
Ġdock
ĠBarc
eph
Ġacademically
antics
Ġdecode
Ġwinners
Ġchiropract
Five
vous
Ġfreight
Ġradial
Ill
arith
Ġstern
ĠRelevance
ĠCret
Ġ"+
Ġdiscs
letons
ĠBiography
ocyte
Ġswiftly
openhagen
Ġintermittent
Ġsclerosis
Ġfixtures
ĠEquality
ĠXX
ĠImprovement
Ġstrawberries
Music
rgb
asions
ĠReyn
Ġachievable
ĠCooperative
Ġbuyer
ãģ®
ĠPassover
Ġsliced
Ġunman
ĠCommander
ĠHash
Ġ[âĢ¦]
Ġdecree
Ġcaul
addy
snap
Ġfist
Ġlaughing
rets
Ġscandal
encoding
Ġstripped
Ġeligibility
Ġivory
egradable
|'.'
URCE
ovakia
Ma
ĠSame
ĠFM
ĠGarc
Ġpedestrian
/',
Ġpoised
Ġsmoked
ĠRecommend
Ġinaccurate
Ġdevoid
fixed
Ġcleansing
tons
Ġaliens
assan
Ġtextual
ĠStudying
Ġcoupling
Ġintrigued
Ġmoths
('.
ANS
Ġforeigners
CSE
Particip
ĠLinda
raisal
ĠMakes
Ġdepended
Ġinitialize
ĠObst
ĠEnterprise
ĠJur
Ġrapp
Ġbreadth
lining
Ġinactive
ĠOdys
ĠRunning
Ġdias
playing
Ġplugin
æł
Ġdeed
ĠShell
tax
Ġmiracul
Need
linalg
ouched
need
Ġparticulate
productive
ĠSpringer
ĠPharmac
Ca
Give
Ġdyst
ĠTopic
soil
Ġdirecting
Ġglowing
Ġcaterpillars
strings
ĠAttention
Ġseller
Ġembedding
Ġinconven
ĠGilbert
templ
Ã«
Ġery
Ġinception
ogh
Ġscav
Ġdengue
Ġsurrounds
ĠNorse
Ġwarns
mom
wright
Ġissuing
Ġmessenger
Ġadversely
Ġmerging
Ġdice
ĠKirk
ĠAssistance
ĠListening
ĠMartian
ĠForms
Ġtransistor
Ïİ
isse
ĠSons
Ġchicks
ĠButler
angs
Ġsalinity
Ġspectroscopy
Ġtumour
Pur
Volume
rina
ĠSultan
ĠBrew
external
Struct
ĠTurtle
Ġoats
ĠWE
Ġairports
Ġcurvature
ĠJess
Ġmultic
ifug
confirm
iferous
advert
anton
Ġcharming
ĠJobs
Ġviolate
ĠSchw
ocyt
å¼
ĠTHIS
clide
phys
Ġprecedent
Ġligament
othelioma
introdu
Ġrealised
Ġspectra
ĠPhotography
phis
renches
Ġdiscovers
Ġtheoretically
CES
Ġnotorious
Ġpalette
escent
ĠPip
Notes
Ġinteracts
Ġdisappointment
Ġdeterminants
amo
ĠBilly
Ġrecognizable
Ġ{},
Ġhunted
obacter
Ġattorneys
ĠEdison
Ġescaping
chemical
Ġbounce
ĠWing
ìĿ
ĠRevelation
Ġsalads
COS
ĠLarg
Ġpreserv
ĠAbbey
Ġbald
ĠFoundations
Ġmelatonin
Ġpulls
pering
ĠLeaf
requires
Subject
integration
Ġcousins
pit
Ġjeopard
Ġpeasant
ĠMAT
plasia
Prog
Ġpitfalls
ogeneity
iman
Ġstuffed
ĠMapping
ĠOCD
liable
Ġrestricting
Ġdisrupting
Bad
ĠEdmund
ĠDrop
Ġprefers
ĠInfection
ĊĠĠĠĠĠĠĠĠĠĠĠĠĠĠĠĠĠĠĠĠĠĠĠĠĠĠĠĠĠĠĠĠĠĠĠĠĠĠĠĠĠĠĠĠĠĠĠĠĠĠĠĠĠĠĠĠĠĠĠĠĠĠĠĠ
Sarah
Ġgenerosity
locations
Ġpalms
aggering
cook
ĠAffect
Ġplaster
ĠRobin
ĠNormally
Ġcounteract
Schema
Tip
Ġrealms
ushima
Ġrepeats
Native
Ġwithdrawn
Ġmicron
];
Ġmustard
Âº
ĠSmoking
Ġglyc
reverse
ĠSecure
Ġcraftsmanship
Role
comings
Ġlandsl
Ġturf
Ġpermitting
ĠPrincess
Ġfp
Ġdisg
phalt
ĠCuriosity
Ġrebuilding
Ġnobility
Ġprejudices
Ġporcelain
ĠĠĠĠĠĠĠĠĠĠĠĠĠĠ
Ġtheirs
Ġspecializes
Ġurllib
epochs
Li
ĠAgg
ĠCCS
Ġraid
metics
Ġscalar
Ġá¼
Bro
nr
ĠPT
onsored
Ġdeputy
Ġantig
Ġsupervisors
Ġrevered
Ġstam
Ġuprising
Ġowning
Ġreferral
Memory
Ġloosely
namespace
Valid
ĠObjective
ĠRonald
uta
Ġchildbirth
apps
washing
ĠHugh
Mixin
Nature
{\
atto
ĠRare
Ġcharitable
Ġencro
uckle
Canada
Ġsauces
Ġhots
ĠTak
Ġimmerse
**,
Ġcheating
ĠExodus
Ġporous
ocative
ICEF
Ġwestward
Ġcrawl
Ġjam
Ġinscriptions
ĠPresidential
Charles
ĠEnsuring
Ġdissect
Ġtenets
records
Ġmolten
Ġfellowship
ĠPrayer
ĠBR
Ġfostered
Ġbudding
Ġtaller
Ġtoilets
Ġmaid
ĠPries
Muslim
ĠOECD
ishable
Ġdomin
datasets
Success
ĠSense
ĠGoddess
Ġacquaint
ĠCorrect
Ġimmersed
does
imshow
Ġspam
ĠKB
Ġairflow
ĠIDE
Ġpertains
Ġgrav
Ġsupplemental
allowed
ĠComponents
Ġaided
Ġoath
Ġhues
ĠAlger
Ġbrushes
Ġibn
ĠCONDITIONS
Ġsi
ĠGust
]|
asus
ĠMall
Ġprisons
MES
Ġexcluding
abling
acillus
ĠBO
posite
Ġtransformer
Ġrewarded
Benefits
á½
arner
Ġbooster
Ġnickname
Left
etz
ĠOUT
Ġconserved
Hi
nament
Ġchin
byte
ĠMonument
Compar
ĠCapitol
Ġalgebraic
itian
ĠInclude
Ġfarmland
osphate
Ġtowels
[...]
